<pad>	0
<unk>	0
<s>	0
</s>	0
<en>	0
<fr>	0
<es>	0
<vi>	0
▁	-1.54892
▁.	-2.57745
s	-4.11889
▁i	-4.17141
▁?	-4.25708
'	-4.32639
▁a	-4.34127
▁tom	-4.40341
▁you	-4.43657
▁to	-4.53702
▁the	-4.5372
▁de	-4.68911
▁t	-4.88223
▁que	-4.92125
y	-4.98518
▁je	-5.01665
▁la	-5.17122
-	-5.2532
n	-5.26842
▁me	-5.29061
ing	-5.29406
ed	-5.32293
▁pas	-5.36742
▁is	-5.38943
▁that	-5.45236
▁est	-5.52759
▁no	-5.53284
▁it	-5.54127
▁le	-5.5452
▁un	-5.62762
▁he	-5.65006
à	-5.66716
▁ne	-5.68598
▁en	-5.7088
▁do	-5.71452
d	-5.74869
,	-5.78359
▁m	-5.81833
▁of	-5.82094
▁in	-5.85196
this	-5.90642
▁was	-5.9245
▁have	-5.93475
▁be	-5.95178
▁s	-5.95622
▁j	-5.97064
▁vous	-5.98451
▁we	-5.98751
▁don	-6.01508
▁l	-6.04439
¿	-6.05531
▁my	-6.06895
▁what	-6.11561
▁for	-6.15226
▁tu	-6.15309
▁el	-6.15639
▁can	-6.1664
ly	-6.19472
▁ai	-6.19719
▁want	-6.20973
▁your	-6.21049
▁on	-6.22275
▁il	-6.22609
▁es	-6.22696
t	-6.23679
▁are	-6.24304
▁did	-6.26102
▁mary	-6.26995
▁go	-6.29616
▁n	-6.31012
▁se	-6.3466
▁d	-6.3514
▁ce	-6.35696
▁nous	-6.36083
▁know	-6.3718
▁re	-6.43695
▁not	-6.45112
▁like	-6.45735
▁with	-6.45763
▁she	-6.4578
▁une	-6.4864
vous	-6.48999
il	-6.5051
a	-6.50629
▁les	-6.52698
▁c	-6.53305
tu	-6.57974
thing	-6.58769
o	-6.63269
▁!	-6.64275
▁te	-6.67394
▁his	-6.69102
e	-6.69153
▁suis	-6.72541
▁pour	-6.7532
▁at	-6.76479
▁think	-6.7761
▁qu	-6.80696
▁and	-6.80866
▁some	-6.81345
▁as	-6.81862
▁any	-6.82663
▁there	-6.83327
▁how	-6.83672
▁ll	-6.83996
ó	-6.85453
▁ça	-6.86149
▁ve	-6.86734
ce	-6.87127
en	-6.87222
es	-6.87352
▁faire	-6.88148
▁all	-6.90459
▁lo	-6.91235
▁por	-6.91579
▁has	-6.91797
▁him	-6.93335
▁time	-6.94022
▁here	-7.01905
▁si	-7.02223
▁al	-7.02615
▁una	-7.03399
▁get	-7.05446
▁los	-7.05623
▁wh	-7.06924
▁about	-7.06965
very	-7.08389
▁él	-7.08528
▁dans	-7.10539
r	-7.12965
▁plus	-7.13654
▁every	-7.14836
▁were	-7.16916
▁will	-7.1713
▁her	-7.17491
▁had	-7.19571
▁up	-7.20787
▁elle	-7.21073
▁need	-7.21194
▁qui	-7.21209
▁con	-7.2248
▁mi	-7.2255
▁tout	-7.23193
▁son	-7.23634
▁does	-7.23708
est	-7.23876
re	-7.24574
▁su	-7.25214
▁would	-7.26451
▁está	-7.26566
if	-7.2804
▁qué	-7.2822
▁look	-7.28619
▁fait	-7.29492
▁see	-7.29526
▁veux	-7.29648
▁an	-7.29761
▁who	-7.30344
▁des	-7.30347
er	-7.31321
▁out	-7.32409
▁could	-7.32582
▁du	-7.33574
i	-7.34441
▁était	-7.35058
▁just	-7.35771
one	-7.35897
▁us	-7.36112
▁when	-7.39272
▁mon	-7.39619
▁help	-7.3991
▁should	-7.39964
▁so	-7.40569
▁au	-7.40839
▁one	-7.41327
▁good	-7.41433
vec	-7.42315
▁come	-7.43765
▁from	-7.45912
▁let	-7.46503
▁êtes	-7.47821
▁tell	-7.47864
▁para	-7.48581
on	-7.50028
▁ella	-7.51681
▁bien	-7.53358
▁by	-7.53669
▁please	-7.53925
▁sont	-7.53949
day	-7.53997
▁man	-7.5419
▁real	-7.55025
▁take	-7.55092
▁work	-7.56569
▁être	-7.56819
▁where	-7.57347
cette	-7.58836
▁et	-7.59814
▁got	-7.6187
é	-7.64217
▁más	-7.64411
▁never	-7.64811
▁now	-7.64999
▁talk	-7.65003
▁tôi	-7.66015
▁peux	-7.66397
▁pense	-7.66489
▁très	-7.66672
▁sais	-7.66957
▁cela	-7.67659
▁say	-7.67712
▁avez	-7.69011
▁home	-7.70499
▁sur	-7.70594
▁more	-7.71249
▁boston	-7.72471
▁much	-7.72892
▁than	-7.73084
▁đ	-7.73667
ng	-7.74201
▁été	-7.74409
▁ici	-7.74603
▁dit	-7.74891
▁ma	-7.74978
▁las	-7.75993
▁thought	-7.76895
▁temps	-7.76922
▁happen	-7.76953
▁but	-7.77108
▁pourquoi	-7.77198
▁too	-7.77579
▁vot	-7.78967
▁car	-7.80145
▁eat	-7.80659
▁long	-7.81978
▁chose	-7.82246
▁là	-7.84033
▁read	-7.84042
▁va	-7.85907
▁yo	-7.86647
▁last	-7.87103
mos	-7.87713
▁moi	-7.88356
body	-7.88374
▁money	-7.88411
▁back	-7.888
▁make	-7.89548
▁bus	-7.90379
▁eso	-7.90504
ils	-7.92137
▁day	-7.92211
▁jamais	-7.92234
moi	-7.92863
▁right	-7.92969
self	-7.94634
▁où	-7.94674
▁comment	-7.94845
▁lot	-7.95224
▁lui	-7.96446
te	-7.96776
▁train	-7.96867
▁french	-7.97063
▁par	-7.97286
▁people	-7.9741
▁b	-7.97617
▁love	-7.9796
je	-7.98261
▁give	-7.98553
▁estoy	-7.99337
▁esta	-8.00795
▁our	-8.01594
▁muy	-8.02182
▁ask	-8.02317
▁avons	-8.02765
▁again	-8.02864
▁speak	-8.03323
▁stay	-8.04136
aid	-8.04786
▁quelque	-8.05023
▁tiene	-8.05199
▁vraiment	-8.06062
▁year	-8.071
▁beaucoup	-8.08015
▁estaba	-8.08096
ment	-8.08238
▁este	-8.08334
still	-8.09505
▁call	-8.10243
▁must	-8.10364
▁play	-8.10367
▁hear	-8.10378
▁won	-8.1077
▁dire	-8.10843
▁am	-8.11717
engo	-8.11897
▁besoin	-8.11937
▁quiero	-8.12876
▁house	-8.12988
▁del	-8.13107
avoir	-8.13113
▁personne	-8.13196
▁gusta	-8.13708
▁try	-8.13945
▁sure	-8.13962
▁tous	-8.1414
me	-8.1423
ways	-8.14504
▁wait	-8.14615
▁toi	-8.14626
▁không	-8.14922
▁made	-8.15264
▁aquí	-8.15341
▁ont	-8.17521
▁may	-8.17982
isn	-8.17999
▁hacer	-8.18252
▁peut	-8.18402
went	-8.18624
▁leave	-8.19156
▁book	-8.19218
▁new	-8.19502
▁sa	-8.1966
▁aller	-8.19946
c	-8.20084
▁rien	-8.20322
do	-8.21231
▁esto	-8.21437
▁ton	-8.2176
▁casa	-8.22201
▁fue	-8.22328
▁school	-8.22553
▁off	-8.23438
▁better	-8.23688
▁aime	-8.24251
▁room	-8.24497
se	-8.24914
way	-8.26401
▁sommes	-8.26613
▁over	-8.26722
▁put	-8.26727
well	-8.27151
able	-8.27682
un	-8.2783
▁before	-8.27871
▁feel	-8.28024
▁happ	-8.2846
▁three	-8.28476
▁dog	-8.28599
▁ha	-8.28699
▁believe	-8.29009
▁pued	-8.29414
▁ta	-8.29876
orrow	-8.30425
▁peu	-8.30476
▁parler	-8.30672
▁idea	-8.3102
▁como	-8.31424
little	-8.31657
▁étais	-8.3171
as	-8.31746
▁left	-8.32049
▁down	-8.32065
’	-8.32285
▁buy	-8.32625
▁them	-8.32741
▁maison	-8.3315
▁hard	-8.34107
▁toujours	-8.34246
▁job	-8.34394
▁hay	-8.34827
▁problem	-8.34879
▁quand	-8.35156
▁todo	-8.35598
le	-8.36221
▁«	-8.36382
▁trop	-8.37053
▁two	-8.37057
m	-8.3779
▁seem	-8.38856
u	-8.39061
▁live	-8.39103
▁comme	-8.39121
▁plan	-8.39242
▁encore	-8.3953
▁monde	-8.39579
▁arrive	-8.40177
▁air	-8.4026
▁father	-8.40902
▁or	-8.41386
▁algo	-8.4153
▁understand	-8.41539
▁favor	-8.41832
▁way	-8.42235
▁»	-8.42283
▁vais	-8.42867
is	-8.42953
▁deux	-8.43157
▁stop	-8.43417
▁nothing	-8.43475
▁tiempo	-8.43522
▁bạn	-8.436
▁find	-8.43614
▁night	-8.43718
out	-8.43933
ld	-8.44037
▁keep	-8.44095
▁quoi	-8.44189
▁other	-8.44694
▁old	-8.44709
ai	-8.45199
▁argent	-8.45223
▁voir	-8.45403
▁dois	-8.45415
▁into	-8.46022
▁bon	-8.47464
▁start	-8.47762
▁question	-8.48017
▁avait	-8.48071
w	-8.48953
▁hope	-8.49184
▁saw	-8.49804
▁có	-8.50284
elle	-8.50329
▁français	-8.5068
▁nada	-8.51279
▁mal	-8.51556
▁autre	-8.51678
▁parents	-8.51737
▁use	-8.51884
▁todos	-8.51901
▁turn	-8.51917
▁mais	-8.52489
▁drink	-8.525
▁watch	-8.52563
ã	-8.52658
▁era	-8.5286
▁ye	-8.52877
▁done	-8.52938
▁tan	-8.53016
▁combien	-8.54023
ough	-8.54434
▁faut	-8.55076
▁after	-8.55207
▁week	-8.55317
▁puede	-8.55469
these	-8.55714
▁pensais	-8.5643
▁soit	-8.5653
ought	-8.56553
▁voiture	-8.57244
▁late	-8.57367
next	-8.58067
▁mucho	-8.58854
▁first	-8.58933
ady	-8.59043
alone	-8.59378
▁aujourd	-8.59595
▁name	-8.59875
▁friends	-8.60006
▁aussi	-8.60195
▁hui	-8.60543
▁friend	-8.60885
▁vez	-8.61649
▁open	-8.61846
▁cuando	-8.62057
▁soon	-8.62058
▁walk	-8.62106
▁door	-8.6248
▁fois	-8.62579
▁life	-8.62609
▁mes	-8.62749
▁travail	-8.63587
▁childre	-8.64026
▁sé	-8.64115
▁ir	-8.64988
▁ever	-8.65019
▁maintenant	-8.65073
▁aimerais	-8.65145
▁wrong	-8.65353
▁quelle	-8.66005
▁debería	-8.66336
▁fais	-8.66364
▁marie	-8.66735
▁vu	-8.6745
▁sleep	-8.67538
▁quel	-8.67958
▁alre	-8.68053
▁remember	-8.68081
▁learn	-8.68168
▁answer	-8.68344
▁elles	-8.68536
▁change	-8.68783
¡	-8.68918
▁ya	-8.68945
nt	-8.68947
▁mother	-8.69054
▁ser	-8.69283
▁déjà	-8.69903
▁bad	-8.69917
▁came	-8.70237
▁mis	-8.70427
▁avais	-8.70514
▁place	-8.71676
▁juste	-8.72078
▁quién	-8.72121
▁their	-8.72182
▁moment	-8.72494
▁solo	-8.72798
▁creo	-8.72963
▁nos	-8.73033
unca	-8.73109
▁morning	-8.73355
▁kne	-8.73368
nous	-8.73494
ando	-8.73682
▁bonne	-8.74062
orry	-8.74267
old	-8.74363
▁aren	-8.744
▁eu	-8.74622
▁ceci	-8.74754
▁cómo	-8.7484
▁kind	-8.75128
▁show	-8.75228
▁rain	-8.75344
▁pouvez	-8.755
▁gave	-8.75797
ther	-8.75901
▁mañana	-8.75997
cause	-8.76634
▁accident	-8.77009
▁water	-8.77882
▁chez	-8.78236
▁police	-8.78274
▁quelqu	-8.78293
▁part	-8.7874
▁christmas	-8.78768
mente	-8.791
▁hier	-8.79589
▁dónde	-8.79906
▁ellos	-8.79961
▁usted	-8.80106
▁wish	-8.80716
▁study	-8.80718
▁finish	-8.80726
▁best	-8.80754
▁estás	-8.81171
▁trabajo	-8.8151
▁ahora	-8.81548
▁teacher	-8.81674
other	-8.81837
▁tienes	-8.82963
▁même	-8.83503
▁dijo	-8.83888
▁found	-8.84309
▁toda	-8.84698
night	-8.84704
▁dinero	-8.84984
▁tired	-8.85032
▁pensé	-8.85134
▁ses	-8.85524
▁same	-8.85629
▁livre	-8.85719
▁interest	-8.85908
▁porte	-8.85986
more	-8.86086
most	-8.86244
▁après	-8.86383
▁often	-8.86409
ried	-8.86419
▁trois	-8.86898
▁mieux	-8.8702
afrai	-8.87143
▁mind	-8.87379
▁sans	-8.88024
▁había	-8.88411
▁hour	-8.88514
▁even	-8.88519
▁prendre	-8.88928
▁pero	-8.8912
▁important	-8.89536
assez	-8.8961
▁doctor	-8.89779
▁brother	-8.89783
▁chance	-8.89863
▁plaît	-8.89974
▁hablar	-8.8999
▁demain	-8.90138
▁soy	-8.90399
▁close	-8.90515
▁seul	-8.90535
▁puis	-8.90669
▁nadie	-8.90822
▁boy	-8.90938
▁están	-8.91025
▁cold	-8.91565
round	-8.91991
▁mejor	-8.92445
▁mộ	-8.92452
▁japan	-8.92491
▁vas	-8.92881
▁voulez	-8.92885
▁problème	-8.92914
▁pay	-8.9301
▁vos	-8.93318
et	-8.93387
▁being	-8.93953
▁tú	-8.94245
▁poco	-8.94257
▁voy	-8.94483
▁puedes	-8.94513
▁hace	-8.94561
▁table	-8.94714
▁big	-8.94807
▁cat	-8.94869
▁care	-8.95047
▁party	-8.95185
▁sus	-8.95206
▁else	-8.95313
▁noël	-8.95862
▁food	-8.95903
▁siempre	-8.95917
▁toutes	-8.95968
▁père	-8.96733
ok	-8.96753
▁devrais	-8.96773
ive	-8.96868
▁verdad	-8.96929
▁dû	-8.97116
▁few	-8.97334
▁venir	-8.9734
▁bed	-8.975
▁enfants	-8.97515
▁student	-8.97581
▁parece	-8.98018
▁true	-8.98342
▁manger	-8.9836
▁john	-8.98424
▁girl	-8.98424
▁tomás	-8.98478
▁break	-8.98645
▁avant	-8.99075
▁vie	-8.99355
▁hoy	-8.994
▁hurt	-8.99413
▁quiere	-8.99416
▁miss	-8.99931
▁mistake	-9.0001
▁great	-9.00131
▁both	-9.00152
▁día	-9.00157
▁questions	-9.00812
▁english	-9.00899
▁école	-9.00966
▁heure	-9.01008
ever	-9.01059
▁word	-9.01512
▁listen	-9.01512
▁hate	-9.01595
▁tenía	-9.01932
▁minutes	-9.02273
▁ces	-9.02275
▁coffee	-9.02649
▁gens	-9.0266
▁quería	-9.02695
ester	-9.028
▁marrie	-9.03244
▁francés	-9.03536
ait	-9.03603
▁libro	-9.03682
▁ver	-9.03784
▁grand	-9.03825
x	-9.03987
▁toute	-9.04088
▁letter	-9.04144
▁eres	-9.0437
lo	-9.04451
▁fire	-9.04453
▁might	-9.04545
coming	-9.04897
▁soir	-9.04947
▁café	-9.04949
▁haber	-9.05221
▁passé	-9.05363
hose	-9.05543
ons	-9.05679
▁point	-9.06128
▁savoir	-9.06319
each	-9.06365
▁beautiful	-9.06652
▁partir	-9.0713
▁dis	-9.07518
▁person	-9.07658
▁matter	-9.07732
▁th	-9.0786
▁movie	-9.07871
▁wear	-9.07982
▁đó	-9.08024
▁entre	-9.08348
▁sûr	-9.08363
▁write	-9.08365
▁jour	-9.08474
▁young	-9.09091
▁difficult	-9.09292
▁esa	-9.09327
▁v	-9.09672
▁ou	-9.09934
▁australia	-9.10052
p	-9.10076
▁quieres	-9.10102
▁which	-9.10187
▁f	-9.10283
▁earl	-9.10364
▁sister	-9.10505
ile	-9.10759
▁sens	-9.10799
être	-9.10923
▁aide	-9.10985
▁estar	-9.11078
▁ese	-9.11289
▁mean	-9.11549
▁voulais	-9.11569
▁possible	-9.11581
▁sabe	-9.1191
▁choses	-9.12157
▁chien	-9.12189
▁nuit	-9.12229
sked	-9.12298
▁careful	-9.12762
▁aux	-9.12864
▁own	-9.13231
▁heures	-9.13324
▁idée	-9.13419
▁cet	-9.13546
▁nice	-9.1366
ve	-9.144
an	-9.14492
▁tarde	-9.14647
toge	-9.14706
▁truth	-9.14722
▁pris	-9.15157
▁pu	-9.15428
where	-9.15677
▁once	-9.15743
▁demasiado	-9.15841
▁met	-9.16234
▁espère	-9.16238
▁world	-9.16633
▁simplement	-9.16802
▁famil	-9.16807
▁hizo	-9.16895
▁antes	-9.17109
▁phone	-9.17316
ría	-9.17394
▁homme	-9.17412
▁grande	-9.17742
▁hand	-9.17884
▁dernière	-9.17888
sterda	-9.1831
▁fut	-9.18381
▁forget	-9.18402
▁mine	-9.1864
▁tres	-9.18699
▁kill	-9.18799
▁aurais	-9.18806
▁easy	-9.19188
▁quelques	-9.19378
▁savais	-9.19435
▁gett	-9.19516
▁fun	-9.19647
▁dos	-9.19782
st	-9.19831
tre	-9.20037
▁difficile	-9.20203
▁ấy	-9.20335
▁petit	-9.20537
▁sait	-9.20643
▁peur	-9.20806
▁rester	-9.21207
▁books	-9.21322
▁wonder	-9.21358
▁meeting	-9.21972
▁child	-9.22135
▁glad	-9.22792
▁dinner	-9.2328
▁decir	-9.2356
▁parle	-9.23647
▁củ	-9.23647
▁raison	-9.23687
▁light	-9.23765
▁veut	-9.23882
us	-9.23905
▁meet	-9.24065
▁padre	-9.24164
▁anh	-9.24306
▁spend	-9.24311
▁secret	-9.2442
▁nombre	-9.24444
such	-9.24552
ta	-9.24581
▁jours	-9.24725
▁mí	-9.24773
▁maría	-9.24789
▁drive	-9.25299
▁prett	-9.25414
▁usual	-9.2563
▁làm	-9.25693
▁promise	-9.25751
▁sin	-9.26108
▁trust	-9.26166
▁años	-9.26388
▁noche	-9.26624
▁estado	-9.2693
it	-9.27134
ở	-9.27152
▁nouveau	-9.27273
▁surprise	-9.27733
▁die	-9.27943
▁dur	-9.27944
aught	-9.2795
▁depuis	-9.27966
ẽ	-9.28218
▁enjoy	-9.28221
▁far	-9.28347
▁wif	-9.28562
▁mère	-9.28674
work	-9.28773
▁station	-9.28797
▁comer	-9.28962
▁alguna	-9.29235
▁alguien	-9.29362
▁month	-9.29634
▁thank	-9.297
▁since	-9.29787
▁hora	-9.29932
▁sobre	-9.30368
ent	-9.30464
▁near	-9.30514
▁run	-9.30599
▁bit	-9.30782
▁visit	-9.30846
▁heureux	-9.31134
os	-9.31279
▁di	-9.31677
▁face	-9.31678
▁fille	-9.31734
▁amis	-9.31811
▁crois	-9.31814
▁tennis	-9.31827
▁sois	-9.31888
▁tv	-9.31961
▁guy	-9.31984
▁todavía	-9.32038
▁faites	-9.32115
▁tes	-9.32128
ten	-9.32338
▁park	-9.33049
▁fel	-9.33294
▁sound	-9.33687
▁tree	-9.33711
▁non	-9.33762
▁lunch	-9.33826
▁wom	-9.33935
▁seule	-9.34068
▁ra	-9.34266
▁fish	-9.34294
▁ayer	-9.34331
▁nuevo	-9.3437
ies	-9.3437
▁agree	-9.34645
▁entendu	-9.35098
▁aider	-9.35445
▁lorsqu	-9.35513
until	-9.35632
▁cuánto	-9.35846
▁semble	-9.36117
▁eau	-9.36268
▁attention	-9.36523
▁coche	-9.36535
▁semaine	-9.36654
enemos	-9.3674
▁angr	-9.36784
ún	-9.36823
▁passe	-9.37127
▁demandé	-9.37371
▁perro	-9.37494
▁necesito	-9.37588
▁longtemps	-9.38063
fast	-9.38356
ez	-9.38376
be	-9.38485
▁key	-9.38763
▁ch	-9.38912
▁cook	-9.39108
▁under	-9.39141
▁small	-9.39324
▁forgot	-9.39328
z	-9.39375
▁piano	-9.39749
▁souvent	-9.39751
▁ti	-9.39752
▁debe	-9.39857
▁situation	-9.40463
aider	-9.40475
▁dormir	-9.40567
elles	-9.40581
▁vida	-9.40639
▁h	-9.40787
▁high	-9.40955
▁tard	-9.4098
▁ans	-9.41082
▁pourrais	-9.41154
▁stor	-9.41239
▁ago	-9.41243
al	-9.41386
▁swim	-9.41418
▁sick	-9.41438
▁fast	-9.41565
▁vi	-9.4174
l	-9.41851
▁ami	-9.41865
▁demande	-9.42084
▁mismo	-9.42103
▁kid	-9.42234
▁cuál	-9.42341
▁así	-9.42587
▁devons	-9.42633
▁sera	-9.42794
ese	-9.43001
▁hair	-9.43043
▁language	-9.43073
▁pendant	-9.4322
▁monday	-9.43343
▁nom	-9.43396
▁tôt	-9.43628
▁arrivé	-9.43874
▁croire	-9.43966
▁jusqu	-9.43968
▁song	-9.44161
▁trouvé	-9.44539
▁hotel	-9.44558
▁dress	-9.44576
▁office	-9.44625
▁hecho	-9.45005
0	-9.45024
▁hospital	-9.4504
▁vrai	-9.45143
having	-9.45262
▁ni	-9.45502
▁gente	-9.45566
▁certain	-9.45575
▁dream	-9.45603
▁acheté	-9.45613
▁rendre	-9.45729
eux	-9.45969
▁gone	-9.46089
▁chambre	-9.46211
▁game	-9.46266
▁hombre	-9.4665
▁follow	-9.46816
▁liv	-9.46863
▁country	-9.46896
▁trouble	-9.46922
▁present	-9.46943
▁sabía	-9.4698
ch	-9.4702
▁laisse	-9.47241
▁perdu	-9.47278
▁quite	-9.47314
▁femme	-9.47351
man	-9.4738
▁most	-9.4741
▁soyez	-9.47906
▁cost	-9.47986
▁matin	-9.48176
▁decided	-9.48196
toi	-9.48309
▁pouvons	-9.4851
▁window	-9.48524
▁trouver	-9.48662
▁hacerlo	-9.48707
▁shoe	-9.48782
▁large	-9.48825
iendo	-9.48865
▁leur	-9.48927
▁broke	-9.48939
▁explain	-9.49007
▁problema	-9.4904
age	-9.4925
▁días	-9.49316
▁free	-9.49319
▁stupid	-9.49389
▁sea	-9.49493
▁nosotros	-9.49915
▁restaurant	-9.49949
▁eyes	-9.50089
▁hot	-9.50095
▁đi	-9.5012
▁mucha	-9.50369
á	-9.50499
▁reason	-9.50499
▁music	-9.50664
▁podría	-9.50755
▁glass	-9.50872
▁exact	-9.51021
▁cuándo	-9.51023
▁nói	-9.5138
▁snow	-9.51709
▁ten	-9.51809
▁clean	-9.5191
▁safe	-9.52057
▁lie	-9.52092
▁main	-9.5214
▁bring	-9.52213
▁désolé	-9.52573
▁chú	-9.52675
▁estamos	-9.53133
▁retard	-9.53338
▁merci	-9.53591
▁favorite	-9.53766
▁pourrait	-9.54115
▁cry	-9.54377
▁six	-9.54405
▁weather	-9.54421
▁nuestro	-9.54585
▁surpris	-9.54599
▁viens	-9.54778
▁fête	-9.54803
▁reste	-9.55092
▁writ	-9.5516
▁ran	-9.55223
▁luck	-9.55503
▁rest	-9.55517
▁và	-9.55592
▁étaient	-9.55699
même	-9.55778
tuvo	-9.56016
▁picture	-9.56047
▁frère	-9.56108
▁sit	-9.56297
▁otra	-9.56398
nh	-9.56462
▁fort	-9.56504
▁seguro	-9.56575
▁afternoon	-9.56584
▁kiss	-9.56717
▁minute	-9.56729
▁fell	-9.56772
▁lit	-9.57081
▁connais	-9.57216
▁semana	-9.57424
gan	-9.57588
▁lire	-9.5765
▁cho	-9.58032
▁lives	-9.58228
▁mundo	-9.58281
èrent	-9.58304
less	-9.58317
▁allí	-9.58476
▁presqu	-9.58501
▁sent	-9.58592
▁bee	-9.58716
▁moins	-9.58846
▁serious	-9.58974
▁worry	-9.58979
▁dollars	-9.58985
▁order	-9.59095
▁aucune	-9.5924
▁prie	-9.59295
▁final	-9.59315
▁thể	-9.5932
▁number	-9.59596
▁gì	-9.5966
▁aucun	-9.59779
ndo	-9.59845
▁madre	-9.59872
▁advi	-9.59936
▁passer	-9.60088
▁téléphone	-9.60154
▁buen	-9.60267
▁fuera	-9.60409
▁feeling	-9.60481
in	-9.60713
▁accord	-9.60744
▁uno	-9.61077
▁cosas	-9.61405
▁ignore	-9.61428
▁comprar	-9.61609
▁jouer	-9.61662
▁doit	-9.61753
▁1	-9.61878
▁famille	-9.61993
▁puerta	-9.6205
▁sujet	-9.62148
▁penses	-9.62274
▁guess	-9.623
ux	-9.62392
ción	-9.62406
▁pièce	-9.62552
▁habitación	-9.62831
▁makes	-9.6288
▁vérité	-9.62977
▁later	-9.62979
▁cree	-9.63066
▁cit	-9.63095
▁mort	-9.63192
▁expect	-9.63294
▁fin	-9.634
▁computer	-9.6355
▁étiez	-9.63663
▁through	-9.6373
▁journée	-9.63963
ook	-9.64094
▁photo	-9.64522
▁casi	-9.64526
▁nouvelle	-9.64617
▁escuela	-9.64738
▁radio	-9.64804
▁class	-9.64919
▁travailler	-9.6496
▁allons	-9.64971
▁rich	-9.6542
▁enfant	-9.65448
kept	-9.66045
▁bicycle	-9.66107
▁allez	-9.66197
▁ville	-9.66304
sleep	-9.66427
ang	-9.66658
▁apple	-9.66667
▁short	-9.66708
▁opinion	-9.66716
▁année	-9.6688
▁full	-9.67005
▁người	-9.67036
▁"	-9.67057
▁niños	-9.67271
▁savez	-9.67631
came	-9.67739
▁hungr	-9.67783
▁partie	-9.67843
▁phả	-9.67975
▁histoire	-9.6818
aking	-9.68292
▁biết	-9.68352
▁quick	-9.6841
▁suppose	-9.68452
▁message	-9.68574
▁sometime	-9.68581
▁win	-9.6873
▁después	-9.68731
▁ayuda	-9.6891
tôt	-9.68963
ên	-9.68991
▁town	-9.69013
▁saber	-9.69098
▁hurry	-9.69302
▁probabl	-9.6936
▁pouvoir	-9.69493
▁stand	-9.69583
▁sœur	-9.6966
▁trouve	-9.69788
ither	-9.69852
la	-9.69879
▁amigos	-9.70015
▁different	-9.70033
▁sing	-9.70047
▁sortir	-9.70083
▁wine	-9.70087
▁film	-9.70096
▁chaque	-9.70306
ont	-9.70434
▁bureau	-9.70456
▁quit	-9.70501
▁adore	-9.70645
▁milk	-9.70753
older	-9.70887
▁pain	-9.71148
▁autres	-9.71248
▁baby	-9.71421
▁devez	-9.71659
▁hands	-9.71756
▁được	-9.71869
▁outside	-9.71936
▁voudrais	-9.72013
▁pasado	-9.72195
ellement	-9.72204
▁wall	-9.72212
taking	-9.72264
ci	-9.72493
▁summer	-9.72609
▁dont	-9.72915
▁flower	-9.72971
▁cut	-9.72987
▁muố	-9.73001
▁danger	-9.73014
▁này	-9.73118
▁agua	-9.73196
▁catch	-9.7324
▁dites	-9.73248
▁touch	-9.73266
▁anglais	-9.73335
▁pronto	-9.73396
▁street	-9.73396
hind	-9.734
▁sabes	-9.73458
▁donné	-9.73613
▁accept	-9.73677
h	-9.73689
▁allé	-9.73798
▁prends	-9.73934
▁voulait	-9.74196
▁daughter	-9.74204
▁necesita	-9.74226
▁lose	-9.74402
▁travel	-9.74474
▁jeune	-9.74496
▁taxi	-9.74539
▁box	-9.74542
▁coup	-9.74689
avez	-9.74767
▁river	-9.74786
▁become	-9.74827
▁lettre	-9.74842
▁smok	-9.74872
▁feliz	-9.75001
▁attendre	-9.75047
▁devriez	-9.75406
▁choice	-9.75407
▁otro	-9.75491
▁tr	-9.75761
▁rule	-9.75876
▁petite	-9.75936
▁sous	-9.75941
▁allow	-9.76034
▁fall	-9.76069
▁difícil	-9.76104
▁veuillez	-9.76224
▁veces	-9.76301
▁compan	-9.76432
▁pensez	-9.76491
▁clear	-9.7666
▁comida	-9.7689
▁dernier	-9.76893
▁menos	-9.77107
ful	-9.77333
▁dark	-9.77486
▁buena	-9.77548
▁realmente	-9.77591
▁pick	-9.77639
▁proud	-9.77665
▁ahí	-9.77713
▁red	-9.77825
▁supposed	-9.77827
▁occupé	-9.77966
▁dead	-9.78162
▁clothes	-9.78306
▁news	-9.78469
▁fini	-9.78648
▁decision	-9.78711
▁patient	-9.78832
▁hat	-9.78914
▁war	-9.78988
ions	-9.7903
▁ensemble	-9.7913
▁consider	-9.79184
▁tanto	-9.79282
▁ate	-9.79826
▁niño	-9.79924
▁health	-9.80026
▁dio	-9.80211
▁vite	-9.8025
▁auto	-9.80334
que	-9.80365
▁cup	-9.80573
▁complete	-9.80715
▁figure	-9.80868
▁strong	-9.80884
▁clock	-9.80887
iez	-9.80964
▁hit	-9.81001
▁inglés	-9.81119
▁laugh	-9.81121
▁meilleur	-9.81136
▁animal	-9.81144
▁plu	-9.81162
▁g	-9.81396
▁concert	-9.81475
▁erreur	-9.81582
▁chat	-9.8189
▁nuestra	-9.82125
▁essayer	-9.82143
▁tea	-9.82158
▁tête	-9.8221
▁teach	-9.82224
▁beer	-9.823
▁business	-9.82352
▁expens	-9.82502
▁serait	-9.83039
▁muchos	-9.8315
une	-9.8326
▁seat	-9.83268
▁vớ	-9.83354
▁davantage	-9.8344
▁año	-9.8349
▁fix	-9.83869
▁confiance	-9.83877
▁ciudad	-9.83892
not	-9.83958
▁comprends	-9.83993
▁girlfriend	-9.84099
▁bag	-9.84203
▁perfect	-9.84232
▁craz	-9.8432
▁paper	-9.84389
▁donner	-9.84471
▁team	-9.84578
▁venu	-9.84589
▁born	-9.84631
▁vino	-9.84659
là	-9.84663
▁strange	-9.84687
▁cake	-9.84692
▁conmigo	-9.84765
▁hold	-9.84825
▁price	-9.84843
amos	-9.85027
▁death	-9.85046
▁bientôt	-9.8505
▁yours	-9.85101
▁desde	-9.85294
▁visto	-9.85496
▁prêt	-9.85512
▁advise	-9.85555
▁laissez	-9.85686
▁ngh	-9.85779
▁store	-9.85886
▁check	-9.86111
cái	-9.86355
▁facile	-9.86398
▁building	-9.86493
▁sell	-9.86588
▁habla	-9.86653
▁seulement	-9.86849
▁spoke	-9.86912
▁envie	-9.86966
▁along	-9.87023
▁save	-9.87023
▁déteste	-9.87134
▁livres	-9.8715
▁serai	-9.87304
▁bueno	-9.87362
▁arm	-9.87366
▁demander	-9.87407
▁thanks	-9.87467
▁sat	-9.87483
▁trip	-9.87689
▁heart	-9.87731
▁information	-9.87739
▁amigo	-9.87776
▁mangé	-9.87854
▁libre	-9.88495
▁sûre	-9.88682
ólo	-9.88863
▁fit	-9.88966
▁contigo	-9.89094
▁fiesta	-9.89094
▁achete	-9.89122
▁fight	-9.89285
▁nager	-9.89351
▁đế	-9.89401
▁tener	-9.89412
▁whole	-9.89452
▁colère	-9.8956
▁podía	-9.89563
▁froid	-9.89752
▁contre	-9.89838
eaten	-9.89841
ation	-9.89846
▁impossible	-9.89855
▁donne	-9.90152
▁điề	-9.90269
▁p	-9.90278
▁hermano	-9.90381
▁intention	-9.90468
▁plane	-9.90567
▁mauvais	-9.90729
▁return	-9.90744
▁devrait	-9.90747
▁color	-9.90749
▁puisse	-9.90812
▁end	-9.91225
▁simple	-9.91255
▁wash	-9.91273
▁count	-9.91553
▁personas	-9.91866
▁tall	-9.92094
▁dix	-9.92541
▁réunion	-9.9265
▁cada	-9.92667
▁espero	-9.92851
▁haciendo	-9.92892
▁white	-9.92926
▁prison	-9.92949
▁fatigué	-9.93046
▁réponse	-9.93051
▁regarde	-9.93089
▁persona	-9.93114
▁act	-9.93186
▁thirt	-9.93211
▁belle	-9.93601
▁dejar	-9.93839
midi	-9.93841
▁mettre	-9.93908
▁vois	-9.93926
▁alors	-9.93928
▁yeux	-9.94119
▁mayor	-9.94209
▁gran	-9.94332
▁compte	-9.94334
ether	-9.94348
▁vélo	-9.94352
▁drunk	-9.94353
▁terrible	-9.94472
▁vue	-9.94473
▁vivre	-9.94544
▁prefer	-9.94618
▁dice	-9.94619
▁heureuse	-9.94708
▁suficiente	-9.94844
ía	-9.94883
▁apprendre	-9.95045
▁essayé	-9.95098
▁oublié	-9.95116
durante	-9.95173
▁endroit	-9.95306
▁devrions	-9.95338
▁parlé	-9.95356
▁parti	-9.9552
▁tienen	-9.95575
▁correct	-9.95629
▁déjeuner	-9.95646
▁tren	-9.95769
twee	-9.95894
▁cô	-9.96048
▁deal	-9.96113
g	-9.96169
▁ferais	-9.96192
▁attend	-9.96254
▁works	-9.96321
▁importante	-9.96425
▁examen	-9.96451
▁cadeau	-9.96514
▁pourriez	-9.96604
▁près	-9.96649
▁stole	-9.96897
▁vieux	-9.9704
▁bird	-9.97051
▁hid	-9.97106
▁smart	-9.9727
▁cuenta	-9.97271
▁shirt	-9.97294
▁salir	-9.97362
elves	-9.97387
▁travaille	-9.97397
▁lock	-9.97462
▁siento	-9.97524
▁laissé	-9.97574
emos	-9.97609
▁solve	-9.97632
▁comes	-9.97766
▁entendre	-9.9788
▁complain	-9.97904
▁celui	-9.97915
▁fácil	-9.98102
▁dangerous	-9.98106
nos	-9.98106
▁manière	-9.98113
▁personnes	-9.98124
venir	-9.98165
▁sun	-9.98187
▁también	-9.98232
▁encontrar	-9.9835
▁prix	-9.98358
▁birthday	-9.98367
▁head	-9.98398
▁case	-9.98561
▁médecin	-9.98618
▁wro	-9.98682
▁malade	-9.98887
▁move	-9.98953
▁fils	-9.99205
▁autant	-9.99242
▁nourriture	-9.99384
▁slow	-9.99494
▁content	-9.99539
▁cama	-9.99567
▁dictionar	-9.99643
▁comprendre	-9.9968
ting	-9.99739
▁carta	-9.99793
▁offer	-9.99848
tion	-9.99897
▁machine	-9.99905
bas	-10.0017
▁front	-10.002
▁quiet	-10.0041
▁camera	-10.0044
▁policía	-10.0067
▁refuse	-10.0096
▁serais	-10.0097
▁clase	-10.0098
▁conduire	-10.0111
f	-10.0123
▁worth	-10.0125
pent	-10.0132
▁écrit	-10.0137
▁regarder	-10.0144
▁mot	-10.0145
▁accidente	-10.0159
▁enter	-10.0164
▁lugar	-10.0173
▁laisser	-10.0187
ty	-10.0201
▁second	-10.0208
▁âge	-10.022
▁sac	-10.0223
▁tokyo	-10.0226
▁feu	-10.0248
▁côté	-10.0261
▁grow	-10.0262
▁sunday	-10.0286
▁leer	-10.0308
▁age	-10.0308
▁cause	-10.0321
▁garçon	-10.034
▁ok	-10.0348
▁half	-10.0353
▁smell	-10.036
ể	-10.0361
▁verre	-10.0361
▁dance	-10.0371
▁appreciate	-10.0372
▁nh	-10.0381
▁genre	-10.0387
▁premier	-10.0387
▁sol	-10.0391
▁vamos	-10.0394
▁vient	-10.0407
▁loves	-10.0423
▁profesor	-10.0424
▁arriver	-10.0449
▁libros	-10.0469
▁bu	-10.0474
▁noise	-10.0478
▁joue	-10.0488
▁sign	-10.0495
▁gare	-10.0495
▁runn	-10.0511
▁weekend	-10.0526
▁swimm	-10.0547
▁excuse	-10.0563
▁familia	-10.0569
▁borrow	-10.057
▁propre	-10.0579
▁amie	-10.0594
▁scar	-10.0596
▁boire	-10.0605
▁type	-10.0619
▁public	-10.0642
▁lunes	-10.0648
▁han	-10.065
▁momento	-10.0653
▁floor	-10.0661
▁exactement	-10.0689
▁garden	-10.0694
▁sai	-10.0694
▁boss	-10.0702
▁rápido	-10.0702
▁vive	-10.0711
▁teléfono	-10.0716
▁shut	-10.0716
▁date	-10.0745
ste	-10.0787
▁écrire	-10.0794
▁actual	-10.0798
▁chemin	-10.0816
▁importa	-10.0817
▁padres	-10.0819
▁trabajar	-10.0837
▁ayudar	-10.0849
▁result	-10.0866
▁ticket	-10.0877
▁send	-10.0879
▁paint	-10.0879
▁fail	-10.0884
▁amour	-10.0894
▁classe	-10.0904
▁neighbor	-10.0914
▁four	-10.0919
▁leav	-10.0922
ant	-10.0923
▁leg	-10.0924
▁probablement	-10.093
▁porque	-10.0938
▁piece	-10.094
▁prochaine	-10.094
gún	-10.0941
▁faim	-10.0942
ado	-10.0959
▁pays	-10.0967
▁easi	-10.0969
▁cả	-10.0981
▁joke	-10.099
▁choix	-10.0999
▁gustan	-10.1001
▁nào	-10.1003
▁funn	-10.1014
▁acerca	-10.102
▁mad	-10.1039
▁problemas	-10.1043
▁mois	-10.1046
▁première	-10.1057
▁parte	-10.106
▁smoke	-10.1086
▁fine	-10.11
▁blame	-10.1106
trong	-10.111
▁librar	-10.1118
▁pregunta	-10.1132
▁chaud	-10.1138
▁disappoint	-10.1141
▁fenêtre	-10.1165
▁vin	-10.1166
jó	-10.117
▁black	-10.1173
▁broken	-10.1178
▁fui	-10.118
▁llegar	-10.1184
▁mange	-10.1193
▁hijo	-10.1194
▁musique	-10.1202
▁décidé	-10.1222
▁ainsi	-10.1231
▁australie	-10.1238
▁beach	-10.1248
▁cerca	-10.1252
▁pouvais	-10.1261
remos	-10.1263
▁normal	-10.1264
▁dehors	-10.1283
▁historia	-10.1286
▁umbrella	-10.129
▁perdre	-10.1293
▁importe	-10.1299
▁evening	-10.1316
ast	-10.133
▁golf	-10.1333
ness	-10.1346
▁canadian	-10.135
▁list	-10.1354
▁voyage	-10.1358
▁worrie	-10.1358
▁cheveux	-10.1364
▁famous	-10.1379
▁mountain	-10.1381
▁propos	-10.1394
▁report	-10.1397
▁việc	-10.141
▁vivir	-10.1415
▁beau	-10.1418
▁mujer	-10.1428
▁road	-10.1438
▁lawyer	-10.1439
▁card	-10.1442
▁joven	-10.1444
▁weight	-10.1444
▁doubt	-10.1445
▁begin	-10.1469
nger	-10.1469
▁hermana	-10.1473
▁visite	-10.1483
▁shopp	-10.1502
sido	-10.1503
▁warm	-10.1506
▁bastante	-10.1506
▁lu	-10.1516
▁error	-10.1534
▁tomar	-10.1553
▁dîner	-10.156
▁notice	-10.1563
▁husband	-10.1567
▁jugar	-10.157
▁side	-10.1581
▁aurait	-10.1583
▁dije	-10.1585
▁như	-10.159
▁boulot	-10.159
▁poor	-10.159
▁pasó	-10.1603
▁honest	-10.1607
▁étudier	-10.1626
▁pizza	-10.1651
▁owe	-10.1664
▁charge	-10.1681
▁necessar	-10.1684
▁commencé	-10.1691
▁loin	-10.1709
▁convince	-10.1722
▁guitar	-10.173
▁montre	-10.1737
▁cosa	-10.1776
▁apologize	-10.178
▁nueva	-10.1783
▁acuerdo	-10.1793
▁apprécie	-10.1804
▁cours	-10.1816
▁désolée	-10.1819
▁hice	-10.1841
▁estaban	-10.1847
▁đây	-10.1848
▁utilise	-10.1853
▁test	-10.1856
▁penser	-10.1858
▁sad	-10.1861
▁plann	-10.1864
▁experience	-10.1872
▁será	-10.189
▁mano	-10.1904
▁esperar	-10.1908
▁bank	-10.1909
▁miedo	-10.1932
▁plait	-10.1939
▁gato	-10.1942
▁appris	-10.1944
▁puso	-10.1952
▁wake	-10.1962
▁telephone	-10.1964
▁realize	-10.1982
▁anoche	-10.1985
▁horas	-10.1991
▁pai	-10.202
▁arrêter	-10.2025
▁terminé	-10.2036
itting	-10.2037
▁diez	-10.2039
▁fier	-10.2042
▁address	-10.2058
▁prenez	-10.2059
▁nervous	-10.2059
▁leurs	-10.2063
veral	-10.2083
▁ventana	-10.2089
▁baseball	-10.209
▁discuss	-10.209
▁forward	-10.2091
▁mình	-10.2103
▁étions	-10.2105
▁gros	-10.2107
▁pasar	-10.2109
▁pode	-10.211
▁gracias	-10.2117
▁tant	-10.212
▁essaie	-10.2121
▁sí	-10.2129
▁waste	-10.2141
▁chanter	-10.2146
▁future	-10.2159
▁taste	-10.2159
▁reçu	-10.2162
▁savait	-10.2166
▁pudo	-10.2178
▁murió	-10.2186
▁alto	-10.2201
▁coat	-10.2213
▁volver	-10.2217
▁rất	-10.222
▁payer	-10.2241
▁join	-10.2251
▁desk	-10.2255
expected	-10.2255
▁ship	-10.2268
broad	-10.2316
▁donde	-10.2319
▁chair	-10.2325
▁professeur	-10.2327
▁bother	-10.233
▁lieu	-10.2345
▁affaire	-10.2378
▁japon	-10.2381
▁peuvent	-10.2382
▁gift	-10.2382
ba	-10.2385
▁mesa	-10.2386
▁nhà	-10.2386
▁nadar	-10.2404
head	-10.2408
▁viene	-10.241
▁sense	-10.2421
▁continue	-10.243
▁nó	-10.243
▁lleva	-10.2433
▁emploi	-10.2442
▁giờ	-10.2448
▁sudden	-10.2448
▁vont	-10.2454
▁medicine	-10.2481
▁star	-10.2489
▁invite	-10.2509
▁japón	-10.2514
▁dicho	-10.2515
rent	-10.2518
▁sel	-10.2545
▁uncle	-10.2546
▁quiconque	-10.2548
▁razón	-10.2548
▁village	-10.2548
▁peine	-10.2549
▁aprender	-10.255
ất	-10.2554
▁arrête	-10.2567
▁traffic	-10.2581
▁về	-10.2581
▁temprano	-10.2582
▁set	-10.2598
▁habitude	-10.2609
ir	-10.261
▁thí	-10.2616
▁total	-10.2628
▁meat	-10.2632
▁triste	-10.2638
agit	-10.2646
▁tie	-10.2649
▁remain	-10.265
▁marcher	-10.2674
quel	-10.2678
▁solution	-10.2683
▁belong	-10.2683
▁cualquier	-10.2688
▁foot	-10.2699
▁pie	-10.2701
▁changer	-10.2702
▁lleg	-10.2702
▁ba	-10.2705
▁vacation	-10.2717
▁regret	-10.2719
▁imagine	-10.2726
▁novel	-10.2736
▁kn	-10.2741
▁idiot	-10.2744
▁fault	-10.2751
▁décision	-10.2768
▁club	-10.2785
▁pouvait	-10.2785
alive	-10.2795
▁tipo	-10.2797
▁per	-10.2809
▁difference	-10.282
▁fumer	-10.2822
▁cross	-10.2823
▁pretend	-10.2823
▁couple	-10.2826
▁lundi	-10.284
▁respect	-10.2848
▁queda	-10.2863
▁rue	-10.2886
▁mà	-10.2894
▁intelligent	-10.2921
rrière	-10.2929
▁rentrer	-10.2946
▁newspaper	-10.2958
▁succeed	-10.2958
▁sécurité	-10.2958
▁répondre	-10.2961
▁inside	-10.2966
▁handle	-10.2972
▁capable	-10.298
▁arrest	-10.2983
ời	-10.2991
▁suggest	-10.2992
entras	-10.3008
▁risk	-10.3025
▁última	-10.3034
▁problèmes	-10.3037
▁chercher	-10.3043
▁pen	-10.3046
▁ocupado	-10.305
ate	-10.3053
▁route	-10.3054
▁terre	-10.3066
▁dar	-10.3069
▁ferai	-10.307
▁rencontrer	-10.3072
▁treat	-10.3075
▁driv	-10.3082
▁smile	-10.3099
▁menudo	-10.3102
▁vo	-10.3103
▁chaussures	-10.3109
▁algunos	-10.3119
▁rouge	-10.3144
▁instant	-10.3185
▁vit	-10.3187
▁estudiar	-10.3227
▁blessé	-10.3243
▁complète	-10.3249
▁devoirs	-10.3254
▁nouvelles	-10.3258
▁deja	-10.3267
▁produit	-10.3275
▁pregunt	-10.3277
▁prochain	-10.328
▁équipe	-10.3286
▁american	-10.3296
▁lake	-10.3297
▁absent	-10.3298
rank	-10.33
▁sorte	-10.331
▁étranger	-10.3311
▁escape	-10.3314
▁riche	-10.3322
▁control	-10.3324
▁bois	-10.3327
▁blue	-10.335
▁jump	-10.335
▁driver	-10.336
▁magasin	-10.3386
▁winter	-10.3386
▁camino	-10.3389
▁fact	-10.339
▁deserve	-10.3395
▁thé	-10.3398
▁calm	-10.3402
▁somos	-10.3416
▁commence	-10.3422
▁televisión	-10.3423
▁avion	-10.3423
ife	-10.3426
▁shot	-10.3428
▁façon	-10.3451
▁conozco	-10.3465
▁estación	-10.347
▁burn	-10.347
aient	-10.3471
▁eggs	-10.3472
▁pueden	-10.3475
▁tiế	-10.3485
▁mains	-10.3487
▁cansado	-10.349
▁television	-10.3496
▁football	-10.3496
▁choose	-10.3501
▁encanta	-10.3507
▁worse	-10.3511
▁haga	-10.3511
▁cover	-10.3517
▁bière	-10.3528
▁rose	-10.3533
▁poner	-10.3544
▁empt	-10.3557
▁sale	-10.3559
▁faisons	-10.3563
▁langue	-10.3572
▁ordinateur	-10.3572
▁gagner	-10.3577
▁america	-10.358
▁condition	-10.3588
▁salt	-10.3592
rought	-10.3604
▁promis	-10.361
▁pull	-10.3617
▁vaya	-10.3625
▁revoir	-10.3638
▁chanson	-10.364
▁fly	-10.3641
▁bruit	-10.3644
▁sueño	-10.3647
▁mauvaise	-10.366
also	-10.3661
▁reach	-10.3663
▁fuerte	-10.3678
▁frío	-10.3682
▁foto	-10.3683
▁horse	-10.3694
▁parce	-10.3706
▁rencontré	-10.3708
▁minutos	-10.3708
▁hide	-10.3713
▁aimé	-10.3714
▁bottle	-10.372
king	-10.372
▁voulons	-10.372
▁pidi	-10.3727
▁stupide	-10.3732
▁neige	-10.3739
▁auparavant	-10.374
▁invit	-10.3764
▁cinco	-10.3774
▁bill	-10.3789
▁nécessaire	-10.3793
▁immediate	-10.3795
▁música	-10.3795
▁immédiatement	-10.3795
▁sola	-10.3803
▁abandon	-10.3804
ación	-10.3819
▁admit	-10.3821
▁thomas	-10.3833
lept	-10.3833
▁zapatos	-10.384
▁hijos	-10.3843
▁entrer	-10.3862
quiera	-10.3863
▁loud	-10.3873
▁rêve	-10.3882
▁pelo	-10.3888
▁climb	-10.3892
▁success	-10.3908
▁contact	-10.3911
▁rapidement	-10.3911
▁popular	-10.3922
▁discuter	-10.3936
▁solía	-10.395
▁pictures	-10.3956
▁conoce	-10.3958
▁appelé	-10.3961
▁arbre	-10.3975
▁país	-10.4014
ió	-10.4021
▁boyfriend	-10.4025
▁welcome	-10.4026
▁font	-10.4028
▁aimes	-10.4029
▁plein	-10.4031
▁télé	-10.4031
▁beat	-10.4032
▁share	-10.404
▁meilleure	-10.4048
▁assis	-10.4066
▁cœur	-10.4075
▁occupée	-10.408
▁calle	-10.4092
▁fat	-10.41
▁tomber	-10.4103
▁stoppe	-10.4103
▁hundred	-10.4103
▁match	-10.4104
▁law	-10.4108
▁faisait	-10.411
▁rappelle	-10.4112
▁travers	-10.412
▁hôpital	-10.4125
▁ski	-10.4136
▁khi	-10.4139
▁poser	-10.4148
▁juntos	-10.4151
▁exam	-10.4153
▁tus	-10.4158
▁tort	-10.4164
▁bébé	-10.4182
▁trente	-10.4188
el	-10.4188
▁ring	-10.4193
▁force	-10.4205
▁zoo	-10.4215
▁blood	-10.4221
▁chapeau	-10.4221
▁sentence	-10.4222
▁droit	-10.4227
across	-10.423
▁court	-10.4236
▁celle	-10.4253
▁perder	-10.4258
▁compró	-10.4261
▁parfois	-10.4261
▁speech	-10.4261
▁único	-10.4261
▁lado	-10.4269
▁vio	-10.4281
"	-10.4286
▁hast	-10.4301
▁lại	-10.4302
ada	-10.4302
comfortable	-10.4325
▁vers	-10.435
▁creer	-10.4354
▁souviens	-10.4355
aime	-10.4358
▁decide	-10.4359
▁ride	-10.4385
▁boîte	-10.4411
▁soin	-10.4414
▁throw	-10.4421
▁pienso	-10.4421
▁llamar	-10.4439
▁garde	-10.4444
amente	-10.4446
de	-10.445
▁fair	-10.4461
▁hubiera	-10.4462
moved	-10.4467
▁fasse	-10.4471
▁guerre	-10.4472
▁poste	-10.4472
▁warn	-10.4475
▁arrêté	-10.4488
▁foreign	-10.4491
▁painting	-10.4494
▁cinq	-10.4494
▁télévision	-10.4503
▁grandfather	-10.4503
▁santé	-10.4503
▁upset	-10.4506
▁vol	-10.4506
▁scare	-10.4517
▁hang	-10.4537
▁k	-10.4556
▁haya	-10.4583
▁poisson	-10.4584
▁sugar	-10.4585
▁vacances	-10.4585
aron	-10.4595
▁hôtel	-10.4596
▁primera	-10.4598
aux	-10.4602
▁quien	-10.461
▁feed	-10.4617
▁commencer	-10.4624
▁airport	-10.4626
▁punto	-10.4626
▁shower	-10.4626
▁innocent	-10.4631
▁lend	-10.4647
▁push	-10.4648
▁fruit	-10.465
to	-10.4651
▁crime	-10.467
▁resté	-10.4676
▁translate	-10.4677
▁película	-10.4678
▁podrías	-10.4696
▁line	-10.4703
▁reunión	-10.4711
▁thấ	-10.4712
▁recent	-10.4712
▁bar	-10.4716
▁deep	-10.4716
les	-10.4718
▁contra	-10.4747
▁colegio	-10.475
▁kitchen	-10.475
▁plaisir	-10.475
▁continu	-10.4784
ur	-10.4788
▁absolute	-10.4793
▁empez	-10.4799
or	-10.4803
▁montrer	-10.4806
tenir	-10.4832
ry	-10.4833
▁laquelle	-10.4834
▁nhiều	-10.4837
▁clé	-10.4845
▁prend	-10.4848
▁tené	-10.4855
▁parc	-10.4858
▁prête	-10.4861
▁affaires	-10.4866
▁numéro	-10.4876
▁college	-10.4876
▁hablando	-10.488
▁carry	-10.4882
▁quisiera	-10.4885
▁impression	-10.489
▁devant	-10.489
▁twi	-10.4906
▁avis	-10.4909
▁shop	-10.4915
▁fool	-10.4918
▁soleil	-10.4919
▁media	-10.4925
▁cas	-10.4935
▁llevar	-10.4941
some	-10.4942
▁vêtements	-10.4945
▁magazine	-10.4961
uve	-10.4977
▁espera	-10.498
▁suspect	-10.4983
dom	-10.4997
▁cầ	-10.5004
▁hơn	-10.501
▁debo	-10.501
dessus	-10.5026
▁esposa	-10.5026
▁changé	-10.5029
▁gun	-10.5034
▁parecía	-10.5035
▁cher	-10.5036
▁bizarre	-10.5044
▁eye	-10.5052
▁raise	-10.5063
▁fou	-10.5073
▁voice	-10.5079
▁chocolate	-10.5079
▁rire	-10.5089
soccer	-10.509
▁médico	-10.509
▁beginning	-10.509
▁marché	-10.5091
▁seven	-10.5092
▁recognize	-10.5106
▁sang	-10.5107
ears	-10.5118
▁retour	-10.5121
▁bicicleta	-10.5133
▁veulent	-10.5133
▁caja	-10.5135
▁coin	-10.5137
▁mom	-10.5139
▁cabeza	-10.5142
▁falta	-10.5163
▁heav	-10.5168
▁journal	-10.5176
▁oficina	-10.5177
▁distance	-10.5179
▁leche	-10.5179
▁buscando	-10.5186
té	-10.5186
▁tenis	-10.5191
▁rivière	-10.5198
▁europe	-10.5201
▁sorti	-10.5209
ayez	-10.5234
▁bras	-10.5236
▁estudiantes	-10.5237
▁breath	-10.5246
años	-10.5253
▁vaut	-10.5255
▁œil	-10.5264
▁bread	-10.5264
▁học	-10.5267
▁étrange	-10.5273
▁lait	-10.5275
▁cuisine	-10.5278
▁ouvert	-10.5283
▁sort	-10.5292
▁pueda	-10.5294
ciones	-10.5305
▁mourir	-10.5308
▁esperando	-10.5309
▁jardin	-10.5321
▁regalo	-10.5323
▁iba	-10.5347
▁course	-10.535
▁reloj	-10.5352
▁occasion	-10.5352
▁pencil	-10.5352
▁wonderful	-10.5355
▁conducir	-10.5355
▁ojos	-10.536
ouloir	-10.5367
▁ph	-10.5384
▁receive	-10.5385
▁attack	-10.5388
ối	-10.5389
▁intéressant	-10.5396
▁sky	-10.5397
▁stopp	-10.5403
▁relax	-10.5418
▁gi	-10.542
▁verte	-10.5422
▁dolor	-10.5427
▁sentir	-10.5431
▁plant	-10.5433
▁ca	-10.5433
▁doute	-10.5439
▁dame	-10.5451
▁article	-10.5452
▁suit	-10.5461
▁rid	-10.5466
▁vieille	-10.5468
▁storm	-10.5472
▁none	-10.5477
▁compré	-10.5486
▁mouth	-10.5487
▁misma	-10.5497
▁étudiants	-10.5499
▁lumière	-10.55
▁llev	-10.5516
▁stuff	-10.5531
▁cuanto	-10.5531
▁voulu	-10.5532
▁suite	-10.5533
▁fueron	-10.5533
▁oído	-10.5534
taller	-10.5544
▁attends	-10.5552
▁sal	-10.5557
▁llave	-10.5558
▁devenu	-10.5559
ball	-10.5565
▁vis	-10.5569
▁plusieur	-10.5577
▁avoid	-10.5578
▁ceux	-10.5581
▁earlie	-10.5583
▁habl	-10.5588
▁perdido	-10.5607
▁carte	-10.5607
▁edad	-10.561
▁cookie	-10.5616
▁page	-10.5619
▁cậu	-10.5623
▁crowd	-10.5625
▁tal	-10.5626
▁nombreuse	-10.5627
▁tocar	-10.5639
▁respuesta	-10.565
▁viejo	-10.5651
▁art	-10.5651
▁satisfi	-10.5668
▁veo	-10.5674
▁tasse	-10.5674
▁devoir	-10.5675
▁sache	-10.5689
▁achet	-10.5694
▁earth	-10.5723
▁fumar	-10.5723
▁gas	-10.5745
▁manque	-10.5769
end	-10.5772
▁manage	-10.5776
▁tenga	-10.5789
▁cheap	-10.5806
▁yes	-10.5809
▁oublie	-10.5811
▁rend	-10.5814
▁necesitas	-10.5816
▁río	-10.5817
▁roman	-10.5819
▁robe	-10.5824
▁cierto	-10.5828
▁common	-10.5831
▁support	-10.5833
▁excuses	-10.5838
déjeuner	-10.5843
▁buil	-10.5846
▁ganas	-10.5846
▁escribir	-10.5849
▁york	-10.5854
▁pens	-10.5862
▁volé	-10.5865
▁années	-10.5866
shame	-10.5875
▁usar	-10.5879
▁sao	-10.5885
▁avance	-10.5886
hood	-10.59
au	-10.5912
▁rapport	-10.5913
▁protect	-10.5922
▁garder	-10.593
▁fleurs	-10.593
▁da	-10.5938
▁sería	-10.5941
▁mets	-10.5944
▁número	-10.5946
▁permission	-10.5946
▁pagar	-10.5959
▁cream	-10.5969
▁préfère	-10.5974
▁réussi	-10.5975
▁remind	-10.5976
▁liste	-10.5978
▁murder	-10.5986
▁talent	-10.599
▁church	-10.5993
▁responsable	-10.5993
▁chuyện	-10.5993
▁men	-10.5993
▁personal	-10.5999
▁marche	-10.6002
▁anniversaire	-10.6003
▁enem	-10.6019
▁power	-10.6019
▁tour	-10.6023
▁réparer	-10.603
▁entrar	-10.603
▁except	-10.604
▁manera	-10.6045
▁bridge	-10.6046
▁donc	-10.6054
▁pensar	-10.6073
▁dispose	-10.6085
▁afford	-10.6088
▁connaît	-10.611
▁sport	-10.6116
▁impress	-10.6121
▁bath	-10.6125
ách	-10.6126
▁gâteau	-10.6135
▁dormi	-10.614
ous	-10.6147
▁service	-10.616
▁compris	-10.6164
▁."	-10.6167
▁wind	-10.6168
▁wo	-10.6173
▁palabra	-10.6174
▁verano	-10.6184
▁voici	-10.6185
▁guerra	-10.6185
▁concern	-10.6185
▁though	-10.6188
▁canción	-10.6192
▁estará	-10.6192
▁donnez	-10.6197
▁finger	-10.6217
▁culpa	-10.6221
▁consejo	-10.6233
▁hiciste	-10.6233
▁lejos	-10.6233
▁tienda	-10.6233
▁plage	-10.6233
▁eight	-10.6233
▁marry	-10.6234
▁đề	-10.6235
▁ropa	-10.6256
▁pluie	-10.6272
▁autobús	-10.6281
▁navidad	-10.6281
▁porter	-10.629
▁bebé	-10.6291
▁vista	-10.6292
▁intent	-10.6294
▁fond	-10.6302
ín	-10.6311
▁chico	-10.6324
▁prepared	-10.6328
▁thế	-10.633
▁odio	-10.633
▁repair	-10.6331
▁dangereux	-10.6332
▁photos	-10.6353
▁aware	-10.6369
▁cool	-10.6379
▁cuarto	-10.6379
▁button	-10.6387
▁conseil	-10.6399
ood	-10.6402
▁fonctionne	-10.6405
âmes	-10.6409
▁fear	-10.6413
▁parlez	-10.6418
▁piensa	-10.6422
▁pleuvoir	-10.6428
ne	-10.6428
▁studie	-10.6429
▁laughing	-10.6445
▁horrible	-10.6447
ás	-10.6449
▁top	-10.6466
▁bigge	-10.6468
▁désormais	-10.6478
▁faute	-10.648
▁cancer	-10.648
▁terminar	-10.6482
▁coûte	-10.6491
▁mesure	-10.6492
▁depend	-10.6495
▁jam	-10.6496
▁special	-10.6501
▁appeler	-10.6502
▁noir	-10.6508
ard	-10.6509
ar	-10.6512
▁bike	-10.6514
▁gentil	-10.6519
▁native	-10.6534
▁seis	-10.6535
▁regardé	-10.6537
▁promets	-10.6542
▁cuidado	-10.6548
▁meal	-10.6558
▁vivo	-10.6563
▁esté	-10.6567
▁interesante	-10.6573
▁obvious	-10.6578
▁risque	-10.6587
▁ojal	-10.66
▁finir	-10.6612
▁trabaja	-10.6616
ơi	-10.6625
▁salió	-10.663
▁haci	-10.6634
▁llama	-10.6637
▁player	-10.6638
▁listo	-10.6645
▁avocat	-10.6665
▁pied	-10.668
▁grave	-10.6688
▁natural	-10.6698
▁pair	-10.6701
ra	-10.6713
▁expérience	-10.6729
▁weird	-10.6729
▁podé	-10.673
▁arrêtez	-10.6731
▁mío	-10.6732
▁pleurer	-10.6735
▁bor	-10.6735
▁soup	-10.6739
▁ice	-10.674
▁ninguna	-10.6748
standing	-10.6754
▁entreprise	-10.6755
▁hommes	-10.676
▁đâ	-10.6763
▁aimez	-10.678
▁ours	-10.6787
▁green	-10.6791
▁document	-10.6792
▁forma	-10.6806
▁résoudr	-10.6816
▁mots	-10.6826
▁jackson	-10.6831
▁voudriez	-10.6831
▁demanda	-10.6853
▁venez	-10.6859
▁excit	-10.6872
▁quatre	-10.6872
▁rendu	-10.6882
▁suitcase	-10.6883
▁tombé	-10.6885
tuck	-10.6887
▁boat	-10.6888
▁cámara	-10.6896
till	-10.6898
▁pregunto	-10.6902
ón	-10.6909
▁cara	-10.691
▁ouvrir	-10.6914
ier	-10.6933
eeth	-10.6934
▁thousand	-10.6935
▁appear	-10.6935
▁malo	-10.6936
▁juego	-10.6948
▁họ	-10.6954
tó	-10.6959
dó	-10.6962
▁entender	-10.6971
▁manos	-10.6972
▁diccionario	-10.6987
▁sandwich	-10.6987
▁restez	-10.6992
▁souhaite	-10.7005
unos	-10.7006
▁cousin	-10.7039
▁tué	-10.7041
▁manteau	-10.7044
▁seriez	-10.7049
▁chica	-10.705
▁dictionnaire	-10.7092
▁dimanche	-10.7092
asseoir	-10.7092
▁guilt	-10.7092
▁rendez	-10.7093
▁soldier	-10.7094
▁suffisam	-10.7096
▁payé	-10.7097
écouter	-10.7098
▁primero	-10.7105
▁cumple	-10.7105
▁excellent	-10.7135
▁project	-10.7143
▁oír	-10.7145
▁finalement	-10.7145
▁dólares	-10.7145
▁wedding	-10.7147
ied	-10.7149
▁regard	-10.7152
▁preguntas	-10.7162
▁savons	-10.7175
▁chemise	-10.7177
▁courant	-10.7177
▁rock	-10.718
▁drop	-10.7206
▁environ	-10.7209
▁assume	-10.7211
▁fee	-10.7216
▁van	-10.7216
▁vote	-10.7218
▁intend	-10.7239
▁cassé	-10.7249
▁pude	-10.7254
▁perdió	-10.7254
▁direction	-10.7256
▁stick	-10.7258
▁erreurs	-10.7259
▁chiens	-10.7262
▁lengua	-10.7272
▁xe	-10.7275
▁urgent	-10.7276
▁amies	-10.729
▁parque	-10.7293
taken	-10.7295
▁beber	-10.7297
▁detail	-10.7299
▁vegetable	-10.7305
▁moindre	-10.7305
▁enfermo	-10.7306
▁hã	-10.7314
▁luz	-10.7315
▁venga	-10.7318
time	-10.7321
▁allait	-10.7323
▁règles	-10.7325
ion	-10.7331
▁jug	-10.7334
▁papier	-10.7344
▁president	-10.7358
▁extraño	-10.736
▁oiseau	-10.7361
▁apartment	-10.7361
▁states	-10.7365
▁querés	-10.7365
▁bear	-10.7366
▁présent	-10.737
▁haría	-10.7375
▁forgive	-10.7382
▁mari	-10.7395
idad	-10.7395
▁seconde	-10.7396
▁add	-10.7397
▁prove	-10.7403
▁aviez	-10.741
▁knock	-10.7413
▁déjame	-10.7415
▁million	-10.7415
▁fera	-10.7416
▁hija	-10.742
▁cena	-10.7422
tenido	-10.7429
▁mail	-10.7431
▁blind	-10.7455
▁oui	-10.7461
▁courage	-10.7467
▁sentiment	-10.7468
▁parapluie	-10.7468
▁esperaba	-10.7471
▁extreme	-10.7474
▁sight	-10.7475
▁ngà	-10.7507
▁capital	-10.7511
▁bibliothèque	-10.7523
▁holiday	-10.7523
▁largo	-10.7524
▁dirt	-10.7525
▁perros	-10.7526
▁dad	-10.7536
▁dirait	-10.7537
▁punish	-10.7537
▁bajo	-10.7538
▁woke	-10.7546
▁gold	-10.7555
eur	-10.7558
▁sérieux	-10.7578
▁smil	-10.7579
da	-10.758
▁fermer	-10.7581
▁option	-10.7582
▁quieren	-10.7595
▁stoo	-10.7608
▁heat	-10.7611
▁filles	-10.7632
▁cuánta	-10.7634
▁recuerdo	-10.7634
▁lúc	-10.7635
▁projet	-10.764
▁différence	-10.7645
▁bateau	-10.7648
▁encontré	-10.7656
▁avión	-10.7659
rice	-10.7682
▁posible	-10.7688
▁hambre	-10.769
▁flores	-10.7696
▁rico	-10.7703
▁pequeño	-10.7703
▁trata	-10.7719
▁calme	-10.772
held	-10.7722
▁jealous	-10.7746
▁vestido	-10.7746
▁ball	-10.7755
▁rumor	-10.7758
▁bord	-10.7762
▁divorce	-10.7764
▁patron	-10.7765
▁plays	-10.7774
▁arme	-10.7788
▁histor	-10.7789
▁haut	-10.7792
▁bâtiment	-10.7803
▁china	-10.7804
▁pire	-10.7804
▁calor	-10.7811
▁account	-10.7812
▁mur	-10.782
▁ven	-10.7827
▁giv	-10.7834
▁museum	-10.7859
▁plupart	-10.7859
▁explanation	-10.7859
▁muerte	-10.786
▁autour	-10.7861
▁longue	-10.7863
▁banco	-10.7864
th	-10.7884
▁introduce	-10.7894
▁abilit	-10.7894
▁secreto	-10.7899
▁pasa	-10.7908
▁ferme	-10.791
▁suerte	-10.7916
attendais	-10.7918
▁haré	-10.7919
▁grosse	-10.7921
▁salle	-10.7922
appelle	-10.7924
▁basket	-10.7927
▁bored	-10.7931
▁extranjero	-10.7934
▁wor	-10.7936
▁step	-10.7947
▁grandes	-10.7951
▁fill	-10.7961
▁ruido	-10.7965
▁telle	-10.7971
▁oportunidad	-10.7974
▁deje	-10.7977
▁equipo	-10.7977
▁drôle	-10.7979
▁qua	-10.7979
▁embarrass	-10.7992
ish	-10.7995
▁pa	-10.8004
▁quá	-10.8011
▁meant	-10.8015
▁scream	-10.8032
▁persuade	-10.8033
▁llover	-10.8034
▁invité	-10.8036
▁hombres	-10.8037
▁duro	-10.8051
▁danser	-10.8053
▁poids	-10.8077
▁impatient	-10.8088
▁appareil	-10.809
▁unidos	-10.8097
▁realidad	-10.8106
▁cancel	-10.8109
▁file	-10.8109
▁repas	-10.8114
▁répond	-10.8116
▁cambiar	-10.8127
▁liar	-10.8129
▁patience	-10.8148
▁pocket	-10.8148
▁lunettes	-10.8148
▁lista	-10.8149
▁puesto	-10.815
▁willing	-10.8151
▁serez	-10.8159
▁spring	-10.8175
▁wors	-10.8182
▁quieras	-10.8193
▁cruel	-10.8195
▁enseignant	-10.8201
▁đầu	-10.8207
▁government	-10.8207
▁thì	-10.8208
▁kh	-10.8211
▁cute	-10.822
▁loco	-10.8221
▁moon	-10.8239
▁hors	-10.8242
▁rare	-10.8254
ieron	-10.8261
▁general	-10.8261
▁crains	-10.8266
▁furent	-10.8266
▁vosotros	-10.8267
▁quitter	-10.8269
▁entiendo	-10.8269
▁allée	-10.8275
▁cerveza	-10.8287
père	-10.8304
▁censé	-10.8309
▁subject	-10.8326
▁couleur	-10.8326
▁pensaba	-10.8326
▁mariage	-10.8327
▁tin	-10.8329
▁chine	-10.8333
▁japonais	-10.8335
▁acá	-10.8338
▁single	-10.8339
aste	-10.8345
▁lonel	-10.8371
▁sweet	-10.8373
▁octob	-10.8379
00	-10.8381
▁chư	-10.8382
▁fatiguée	-10.8383
▁cherche	-10.8384
▁rent	-10.8384
▁dijiste	-10.8386
▁brush	-10.8386
▁10	-10.8393
given	-10.8394
▁hagas	-10.8398
▁lis	-10.84
▁novia	-10.8413
▁pan	-10.8415
▁vuelta	-10.8423
▁expliquer	-10.8431
▁land	-10.8437
▁terminado	-10.8444
▁fresh	-10.8445
▁vacaciones	-10.8446
▁muerto	-10.8447
▁pommes	-10.8448
▁blague	-10.845
▁arriv	-10.8451
▁ignorais	-10.8455
▁admire	-10.8458
▁cocina	-10.8459
▁sommeil	-10.8466
▁poder	-10.847
▁parfaite	-10.847
▁nieve	-10.8474
▁position	-10.8485
▁succès	-10.8507
▁web	-10.8518
▁avions	-10.8527
▁douleur	-10.8533
▁niña	-10.8539
▁ground	-10.8554
▁árbol	-10.8556
▁stone	-10.8565
▁prevent	-10.8568
▁prudent	-10.8572
▁palabras	-10.858
était	-10.8591
▁comprend	-10.8592
▁estaré	-10.8604
▁survive	-10.8606
hôm	-10.8614
▁vide	-10.8622
▁último	-10.8629
▁human	-10.8634
mong	-10.865
▁island	-10.8659
▁dropp	-10.8662
▁rentré	-10.8666
▁yen	-10.8671
▁étudie	-10.8672
▁windows	-10.8684
▁dérange	-10.8686
▁proche	-10.8689
▁silence	-10.8691
▁conversation	-10.8691
▁chicken	-10.8691
▁chaise	-10.8691
▁silent	-10.8691
▁pensando	-10.8693
▁regardez	-10.8693
tbol	-10.8695
▁venue	-10.8695
▁plent	-10.8695
▁gagné	-10.8702
▁memor	-10.8704
▁lever	-10.871
▁aidé	-10.8711
▁shock	-10.8713
▁past	-10.8713
▁tableau	-10.8716
▁poem	-10.8726
▁croyais	-10.8729
▁attendu	-10.8747
▁pauvre	-10.8753
▁proposition	-10.8753
▁feriez	-10.8753
▁rude	-10.8753
▁senti	-10.8754
▁compter	-10.8762
▁fi	-10.8771
▁certaine	-10.8774
▁map	-10.8774
▁rains	-10.8777
▁ill	-10.8799
▁volvi	-10.881
▁entonces	-10.8815
▁suffer	-10.8817
fú	-10.8817
▁earn	-10.8819
iddle	-10.882
▁jambe	-10.8822
▁importance	-10.8827
▁stranger	-10.8838
▁préféré	-10.8855
▁cantar	-10.8855
darme	-10.8861
paz	-10.8873
▁salud	-10.8875
▁montagne	-10.8878
▁german	-10.8878
▁equivocado	-10.8879
▁femmes	-10.8879
▁oncle	-10.888
▁coucher	-10.8885
▁rang	-10.8888
▁intérieur	-10.8892
no	-10.8899
▁mentir	-10.891
▁amusant	-10.8915
▁allá	-10.8917
▁grandmother	-10.8941
▁viande	-10.8941
▁imagination	-10.8942
▁quitté	-10.8943
▁sold	-10.8951
▁record	-10.8968
ver	-10.8972
▁sigue	-10.8975
▁wood	-10.8975
▁otros	-10.8978
▁parfait	-10.8979
▁post	-10.8991
▁allai	-10.8991
▁bare	-10.8993
▁banque	-10.8995
▁france	-10.8996
▁awake	-10.9005
▁unfortunate	-10.9005
▁vendrá	-10.9005
ble	-10.9013
▁hire	-10.9013
▁sports	-10.9019
▁pont	-10.9059
▁montó	-10.9065
▁habite	-10.9074
▁cheval	-10.9079
cabo	-10.9082
▁présenter	-10.9087
▁mention	-10.9094
▁cash	-10.9102
▁viaje	-10.911
▁estudiante	-10.911
▁intéressé	-10.9111
▁esprit	-10.9123
▁annoy	-10.9134
▁sitio	-10.9134
cisión	-10.9135
▁réfléchir	-10.9142
▁connaître	-10.9147
▁voyager	-10.9148
▁fuego	-10.9149
nstead	-10.9149
▁form	-10.9164
▁discussion	-10.917
▁dut	-10.9177
▁canadiense	-10.9177
▁oí	-10.9181
▁orange	-10.9186
▁opportunit	-10.9196
ábamos	-10.9198
▁treinta	-10.9199
▁flight	-10.9199
▁steal	-10.9199
▁issue	-10.92
▁souci	-10.9209
▁visitar	-10.921
▁appelle	-10.9213
▁brave	-10.9221
▁amor	-10.923
▁probable	-10.9239
▁truck	-10.9245
▁escuchar	-10.9253
▁dè	-10.9258
▁inteligente	-10.9264
▁headache	-10.9265
▁signifie	-10.9278
▁réjouis	-10.9286
▁tickets	-10.9293
▁view	-10.9296
▁essayez	-10.9299
ia	-10.9301
▁ganar	-10.9309
▁involve	-10.931
▁singer	-10.9322
▁taille	-10.9323
▁particular	-10.9329
▁camisa	-10.933
▁purpose	-10.933
▁thật	-10.9342
▁vậy	-10.9343
▁certains	-10.9344
ais	-10.9345
▁nay	-10.9345
ted	-10.9352
▁danc	-10.9367
▁seguir	-10.9381
▁acaba	-10.9382
▁pájaro	-10.9396
▁quizá	-10.9396
▁billet	-10.9399
▁familiar	-10.9399
▁underst	-10.94
▁taza	-10.9403
▁seras	-10.9404
▁handed	-10.9406
▁wound	-10.9408
▁fermé	-10.9416
▁?"	-10.9429
▁asunto	-10.9441
ido	-10.9453
▁license	-10.9463
▁tire	-10.9464
▁mérite	-10.9465
▁rope	-10.9467
▁obligé	-10.9469
▁piensas	-10.9471
▁grab	-10.9473
▁speaker	-10.9475
▁autorisé	-10.9475
▁menti	-10.948
▁retourner	-10.9484
▁bout	-10.9493
▁ferait	-10.9502
▁envoyé	-10.9503
▁tarea	-10.9509
▁auriez	-10.9519
▁gatos	-10.9522
ended	-10.9525
▁trước	-10.953
▁montaña	-10.953
▁baño	-10.954
▁voix	-10.9542
▁blanco	-10.9547
▁goal	-10.955
▁phrase	-10.9552
▁étudiant	-10.9553
▁mujeres	-10.9568
▁moyen	-10.9577
▁mía	-10.9577
hap	-10.9582
▁stylo	-10.9583
▁injur	-10.9586
ll	-10.9597
▁couteau	-10.9599
▁dormido	-10.9602
áis	-10.9608
▁rends	-10.9612
▁certaines	-10.9614
▁llorar	-10.9615
▁cru	-10.9619
▁schedule	-10.9628
▁contrôle	-10.963
▁mit	-10.9646
▁adresse	-10.9653
▁caso	-10.9659
▁mov	-10.9661
▁exercise	-10.9665
▁obey	-10.9665
▁pequeña	-10.9667
▁tío	-10.9669
▁paris	-10.9677
▁shy	-10.9705
▁próximo	-10.9711
prit	-10.9714
dad	-10.9717
ient	-10.9726
▁lac	-10.9726
▁peace	-10.9734
▁biblioteca	-10.9734
▁compañía	-10.9734
▁animaux	-10.9734
▁edificio	-10.9734
▁sombrero	-10.9734
▁parole	-10.9735
▁proposal	-10.9736
▁mira	-10.9739
▁pieds	-10.9743
gó	-10.9748
ì	-10.9751
▁fed	-10.9756
▁errores	-10.976
▁internet	-10.9766
▁odia	-10.9776
aba	-10.9779
▁abri	-10.9782
▁expert	-10.9785
lf	-10.9786
ic	-10.9791
▁apena	-10.9795
▁picnic	-10.9803
▁roof	-10.9803
▁également	-10.9803
▁conseils	-10.9812
▁pack	-10.983
▁empezar	-10.9836
▁sentido	-10.9838
endo	-10.9841
▁jeu	-10.9844
▁clés	-10.9849
▁contente	-10.985
▁ruin	-10.9864
▁dime	-10.987
▁passport	-10.9872
▁saturday	-10.9872
▁entire	-10.9872
▁honte	-10.9873
▁durant	-10.9884
▁guitarra	-10.9886
▁vale	-10.9901
▁mala	-10.9914
▁especial	-10.9914
▁mood	-10.9917
▁continuer	-10.9931
▁cent	-10.9932
▁ello	-10.9932
▁peligro	-10.9939
▁group	-10.9941
▁decidió	-10.9944
▁super	-10.9949
▁carne	-10.9963
▁sub	-10.9971
▁guitare	-10.9972
▁courir	-10.9974
▁abo	-10.9986
▁nine	-10.9986
▁garçons	-10.9994
▁écoute	-11.0006
▁earthquake	-11.0013
▁dentro	-11.0013
▁única	-11.0013
▁search	-11.0013
▁perdí	-11.0014
▁tel	-11.0017
▁avaient	-11.0021
▁tiens	-11.0022
▁utile	-11.0032
▁arrivée	-11.0034
arte	-11.0035
▁veuille	-11.0058
▁supposé	-11.0066
▁retire	-11.0066
ình	-11.0068
▁caminar	-11.0072
▁collect	-11.0072
▁aquel	-11.0074
kidd	-11.0075
▁lent	-11.0077
▁atención	-11.0082
í	-11.0083
▁frighten	-11.0084
▁barco	-11.0084
dedans	-11.0084
▁cheat	-11.0088
▁parviens	-11.0095
▁échec	-11.0096
▁jacket	-11.0097
▁pool	-11.0101
▁stamp	-11.0101
▁video	-11.0104
▁god	-11.0104
▁né	-11.0106
▁vase	-11.0128
▁primer	-11.0135
▁début	-11.0141
▁dry	-11.0147
board	-11.0155
▁habría	-11.0155
▁souvenir	-11.0155
▁appointment	-11.0155
▁travaillé	-11.0155
▁bedroom	-11.0156
▁invitation	-11.0156
▁suivre	-11.0156
▁rarement	-11.0159
rew	-11.016
▁restaurante	-11.0162
▁quedar	-11.0165
▁tight	-11.0172
▁arrivera	-11.0177
▁vivent	-11.0177
ấy	-11.0178
▁haz	-11.0186
▁satisfait	-11.0188
▁alarm	-11.0192
▁tranquille	-11.0216
▁rapide	-11.0217
hrew	-11.0219
▁papel	-11.0228
▁polite	-11.0229
▁press	-11.0231
▁sweater	-11.0231
ông	-11.024
▁manager	-11.0241
▁chang	-11.0251
▁pratique	-11.0259
▁irai	-11.0269
▁essaye	-11.0283
▁espoir	-11.0289
▁prepar	-11.0298
▁mensaje	-11.0299
▁éxito	-11.0299
▁discours	-11.0299
▁cuatro	-11.0299
▁connaissez	-11.03
▁fortune	-11.0302
▁comió	-11.0304
▁chats	-11.0307
▁tiền	-11.0308
▁viendra	-11.031
▁cop	-11.0319
▁emprunter	-11.033
▁ear	-11.0336
▁cars	-11.0338
▁cenar	-11.0361
▁gauche	-11.0365
▁hop	-11.0371
▁lluvia	-11.0372
▁responsibl	-11.0372
▁debout	-11.0373
▁nurse	-11.0373
▁explosion	-11.0373
▁abogado	-11.0373
▁explication	-11.0373
▁science	-11.0374
▁dishe	-11.0376
▁duele	-11.0381
▁facilement	-11.0382
▁signe	-11.0397
▁chante	-11.0408
▁prefier	-11.041
▁peso	-11.0418
▁ido	-11.043
▁straight	-11.0435
▁confus	-11.044
▁behavio	-11.0446
▁prévu	-11.0446
▁shoot	-11.0446
▁passée	-11.0447
▁exactamente	-11.0448
▁ocurrió	-11.0449
▁interrupt	-11.0451
▁chess	-11.0453
up	-11.0457
▁cheese	-11.0459
▁convaincu	-11.0461
ết	-11.0461
▁vienne	-11.0485
▁estaría	-11.0493
appeler	-11.0497
▁œufs	-11.0505
▁ciel	-11.0508
▁allés	-11.0514
▁demand	-11.0514
▁alrededor	-11.052
▁enfin	-11.052
▁situación	-11.052
▁trabajando	-11.0522
▁soirée	-11.0522
▁giá	-11.0522
▁cloud	-11.0527
▁cuesta	-11.0534
▁entré	-11.0555
▁contar	-11.0557
mment	-11.0575
▁pod	-11.0587
▁worker	-11.0587
▁private	-11.0595
▁conscience	-11.0595
▁nerveux	-11.0595
▁divertido	-11.0595
▁maladie	-11.0595
▁universit	-11.0596
▁suelo	-11.0596
▁ressemble	-11.0597
eron	-11.0599
▁lazy	-11.06
inquiète	-11.0613
▁chiế	-11.0615
▁donna	-11.062
▁aconsej	-11.0626
▁mille	-11.0644
iró	-11.0648
▁abuelo	-11.0659
▁vent	-11.0663
▁vécu	-11.0667
▁tempête	-11.067
lui	-11.0671
▁olvide	-11.0677
▁washing	-11.0684
▁escribi	-11.0688
▁sống	-11.069
▁pedir	-11.0697
▁complet	-11.0699
▁préparer	-11.07
▁tới	-11.0703
arme	-11.0704
▁ông	-11.0706
▁dents	-11.0707
▁note	-11.071
▁pon	-11.0722
▁exist	-11.0722
▁marié	-11.0725
▁pomme	-11.0743
▁diferente	-11.0744
▁boca	-11.0744
▁docteur	-11.0745
▁goodbye	-11.0746
▁incroyable	-11.0746
▁draw	-11.0752
▁harm	-11.0755
▁oh	-11.076
▁supporter	-11.0763
ure	-11.077
▁tombée	-11.0772
ma	-11.0775
▁pensai	-11.0777
ement	-11.0787
▁adopt	-11.0788
▁diet	-11.0789
▁aille	-11.079
cia	-11.0793
▁huevos	-11.08
▁permis	-11.0809
▁mettez	-11.081
▁estúpido	-11.0817
▁potato	-11.0822
▁bain	-11.0823
▁visage	-11.0823
▁llevaba	-11.0825
▁goût	-11.0827
miento	-11.0834
▁fallu	-11.084
▁suicide	-11.0849
▁honnête	-11.0853
ory	-11.0855
▁popula	-11.0856
▁oil	-11.0858
▁pena	-11.0863
▁câ	-11.0864
▁jeunes	-11.088
hief	-11.0887
ellow	-11.0888
▁shall	-11.0896
▁ghost	-11.0899
▁inconvénient	-11.0899
▁volunteer	-11.0899
▁peor	-11.09
mère	-11.09
▁công	-11.0929
▁enseñ	-11.093
▁serve	-11.0939
▁conseguir	-11.0955
▁avenir	-11.0967
▁weapon	-11.0976
▁peligroso	-11.0977
mua	-11.0978
▁semblez	-11.0981
▁acaso	-11.0981
▁hará	-11.0982
▁derecho	-11.0984
▁playa	-11.0987
▁judge	-11.0992
▁image	-11.0995
▁marier	-11.0996
▁mọ	-11.0997
▁jard	-11.101
▁moitié	-11.1011
▁jolie	-11.1015
▁fus	-11.1015
▁alta	-11.1016
▁attraper	-11.1019
ếu	-11.1024
▁meaning	-11.1025
▁efforts	-11.1031
rató	-11.1043
▁clases	-11.1045
▁possibilit	-11.1045
▁curious	-11.1054
▁vouliez	-11.1055
▁confiar	-11.1055
▁caballo	-11.1055
▁sucre	-11.1056
▁guard	-11.1057
▁remercier	-11.1059
▁discover	-11.1063
▁ayudarte	-11.1065
▁pasada	-11.1066
▁leyend	-11.1071
▁réussir	-11.1079
ấ	-11.1081
arrêter	-11.1088
▁loi	-11.109
▁bite	-11.1091
▁exhaust	-11.1091
▁reconnaissant	-11.1095
▁aéroport	-11.1099
▁saben	-11.1108
▁partout	-11.1112
bemos	-11.1125
▁poison	-11.113
▁giúp	-11.1133
▁crash	-11.1133
▁classroom	-11.1133
▁frente	-11.1133
▁market	-11.1134
▁rojo	-11.1136
▁manqué	-11.1138
▁recover	-11.1139
▁fence	-11.1147
▁size	-11.1147
▁groupe	-11.1148
▁require	-11.1154
▁nose	-11.1155
▁blanc	-11.116
▁prisoner	-11.1169
▁damage	-11.1175
▁prueba	-11.1176
▁animales	-11.1176
▁aise	-11.118
▁choisi	-11.1192
ité	-11.12
▁chacun	-11.1213
▁disease	-11.1213
▁pháp	-11.1213
▁dirección	-11.1214
semblait	-11.122
▁mới	-11.1224
▁practice	-11.1229
vimos	-11.1245
▁miles	-11.1248
▁probablemente	-11.1251
▁hiver	-11.1256
▁portes	-11.1261
▁revenir	-11.1264
▁béisbol	-11.1292
▁cravate	-11.1292
▁harvard	-11.1292
▁absence	-11.1293
▁co	-11.1294
▁bark	-11.1302
▁gar	-11.1305
▁aie	-11.1308
▁larga	-11.1313
▁demandai	-11.1315
▁committe	-11.132
irme	-11.1323
▁rat	-11.1323
▁similar	-11.1327
▁hiciera	-11.1332
▁rompi	-11.1334
▁shoulder	-11.1337
▁partido	-11.1338
▁nghe	-11.1341
iness	-11.1343
ộc	-11.1352
▁offre	-11.1362
▁bright	-11.1363
▁changes	-11.1364
▁pleut	-11.1373
▁rhume	-11.1373
▁prize	-11.1373
▁produire	-11.1373
▁third	-11.1373
▁morceau	-11.1373
▁extra	-11.1374
▁canapé	-11.1374
▁ouverte	-11.1376
▁jok	-11.1377
▁deberes	-11.1378
▁humor	-11.1378
▁fiche	-11.1384
▁intenta	-11.1385
▁cuisiner	-11.1386
▁vendre	-11.1387
aimait	-11.1387
▁bell	-11.1388
▁bons	-11.1392
▁segura	-11.1392
▁habit	-11.1393
contró	-11.1394
▁sock	-11.1409
▁awful	-11.1411
▁pedí	-11.1415
▁accepter	-11.1423
▁parles	-11.1437
▁différent	-11.1438
▁recherche	-11.1441
▁wise	-11.1445
▁recommend	-11.1454
▁concierto	-11.1455
▁desearía	-11.1455
▁suele	-11.1457
▁forte	-11.1458
▁tốt	-11.1458
▁complicate	-11.146
▁lago	-11.1464
▁direct	-11.1467
▁bailar	-11.147
▁université	-11.1475
▁po	-11.1477
▁decirle	-11.1481
▁twent	-11.1488
ondon	-11.1491
▁revenu	-11.1492
▁aiment	-11.1493
ayó	-11.1494
▁tuer	-11.1498
▁funciona	-11.1505
viendo	-11.1512
▁lift	-11.1516
▁entrée	-11.1523
▁according	-11.1528
▁unite	-11.1528
▁corrien	-11.1532
▁betray	-11.1536
▁cuchillo	-11.1536
▁pudiera	-11.1537
▁hermosa	-11.1537
▁lentement	-11.1538
▁ennuis	-11.1544
▁favorito	-11.1544
▁fever	-11.1546
▁graduate	-11.1547
▁gagne	-11.1548
▁example	-11.1551
occuper	-11.1553
▁papa	-11.156
▁morir	-11.1572
▁suivi	-11.1574
▁décider	-11.1578
▁préparé	-11.1578
▁entró	-11.1588
▁mien	-11.1592
▁ordre	-11.1594
▁pant	-11.1597
▁bas	-11.16
▁race	-11.1604
▁pleine	-11.1608
▁sourire	-11.1617
▁quelconque	-11.1619
▁supermarket	-11.1619
▁fuji	-11.1619
▁ambos	-11.1619
▁theater	-11.162
▁guest	-11.1621
▁nhất	-11.1622
▁fift	-11.1623
▁drown	-11.1624
▁responder	-11.1625
▁semaines	-11.1629
▁season	-11.1631
▁mantener	-11.1635
▁thirst	-11.1635
▁estudia	-11.164
▁oubliez	-11.1641
▁causa	-11.1644
▁voyez	-11.1644
dónde	-11.1649
urniture	-11.1654
eran	-11.1654
▁system	-11.1656
▁độ	-11.166
▁gre	-11.1668
▁low	-11.1675
▁gain	-11.1678
▁attendez	-11.1684
▁alcohol	-11.1696
ro	-11.1696
▁whi	-11.1701
▁advance	-11.1701
▁energ	-11.1702
▁disturb	-11.1702
▁jazz	-11.1702
▁imposible	-11.1702
▁sauf	-11.1703
▁negro	-11.1703
▁email	-11.1704
▁douche	-11.1704
▁conseillé	-11.1704
▁scene	-11.1704
▁battre	-11.1704
▁paraguas	-11.1707
▁pantalon	-11.1711
▁invent	-11.1716
▁abierta	-11.1717
▁stair	-11.1718
▁camp	-11.173
▁abrir	-11.1773
▁contract	-11.1776
▁llamó	-11.1786
▁invierno	-11.1786
▁parlons	-11.1787
anh	-11.1788
▁toilet	-11.1793
▁hobby	-11.1796
▁huge	-11.1796
▁manzana	-11.1801
▁entière	-11.1803
▁nut	-11.1805
▁apprécié	-11.1806
▁novela	-11.1809
▁math	-11.1812
▁unlike	-11.182
▁bouteille	-11.1836
▁matar	-11.1845
▁toca	-11.1847
án	-11.1847
▁factor	-11.1848
▁siete	-11.1848
▁digas	-11.1854
▁hub	-11.1867
▁almuerzo	-11.1871
▁universidad	-11.1871
▁bathroom	-11.1871
▁juega	-11.1872
▁space	-11.1873
ron	-11.188
▁describe	-11.1886
▁faveur	-11.1886
▁couru	-11.1892
▁glace	-11.1897
ión	-11.1899
▁terminó	-11.1903
▁tough	-11.1905
▁vieil	-11.1908
▁amérique	-11.1909
▁vend	-11.1911
▁viven	-11.192
▁laver	-11.192
▁hung	-11.1924
▁echar	-11.1925
vais	-11.1926
▁chef	-11.1934
▁lecture	-11.1938
▁contento	-11.1941
▁obteni	-11.1956
▁caliente	-11.1957
▁londres	-11.1957
▁généralement	-11.1957
▁voz	-11.1961
▁certainement	-11.1962
▁levé	-11.1963
so	-11.1963
▁cùng	-11.1964
▁serio	-11.1964
▁habituellement	-11.1965
irs	-11.1973
▁neuf	-11.1975
▁regrette	-11.1977
▁vérifier	-11.1988
▁sors	-11.1993
▁medio	-11.2011
▁rato	-11.2011
▁commença	-11.2011
▁due	-11.2018
▁diga	-11.2019
▁iron	-11.2034
▁lady	-11.2034
use	-11.2036
▁idées	-11.2041
▁opinión	-11.2043
▁llegué	-11.2043
▁ancien	-11.2043
▁vuestro	-11.2043
▁remarqué	-11.2046
▁lleno	-11.2049
▁jail	-11.2058
▁corps	-11.2058
▁tokio	-11.2058
ả	-11.2061
▁enseñar	-11.2066
▁mess	-11.2066
k	-11.2071
▁llaves	-11.2079
▁époque	-11.2081
▁dessus	-11.2087
▁usa	-11.2093
▁trick	-11.2095
▁comprado	-11.2096
▁anyway	-11.2106
▁strict	-11.2123
▁nature	-11.2129
▁próxima	-11.213
▁unhapp	-11.213
▁employee	-11.213
▁pond	-11.213
▁supong	-11.2132
▁faisais	-11.2133
▁negocio	-11.2137
▁kick	-11.2138
▁significa	-11.2146
▁estuviera	-11.2149
▁dirai	-11.2151
▁habitué	-11.2156
poco	-11.2163
▁bebe	-11.2167
▁forme	-11.2167
▁argu	-11.2184
▁resolver	-11.2187
▁états	-11.2189
ped	-11.2191
we	-11.2194
▁mar	-11.2199
▁golpe	-11.2199
êm	-11.2201
▁comenz	-11.2201
▁aurai	-11.2204
▁vaso	-11.2204
▁doll	-11.2217
▁elevator	-11.2218
▁paciente	-11.2218
▁querría	-11.2218
▁entends	-11.2221
▁clever	-11.2221
▁levant	-11.2222
▁disent	-11.2229
▁necesitaba	-11.223
▁jefe	-11.2233
▁hago	-11.2235
▁connaissance	-11.2255
▁lamento	-11.2259
▁terminer	-11.2262
▁yell	-11.2264
▁dise	-11.2264
▁inquiet	-11.228
▁courses	-11.2293
▁prêts	-11.2294
▁gérer	-11.2306
▁avail	-11.2307
▁común	-11.2307
▁balle	-11.2307
▁azul	-11.2308
▁passenger	-11.2309
▁savent	-11.2313
▁recordar	-11.233
unque	-11.2331
▁bet	-11.2335
▁sentar	-11.2341
▁double	-11.2346
és	-11.2346
▁xin	-11.2348
▁mid	-11.2349
mes	-11.236
trás	-11.2363
▁sala	-11.2383
▁plato	-11.239
▁stock	-11.2392
▁extrême	-11.2395
▁afuera	-11.2395
▁pause	-11.2397
▁voleur	-11.2397
▁perte	-11.2404
▁sales	-11.2408
▁chicos	-11.241
▁silla	-11.241
▁bouton	-11.2412
▁wet	-11.2418
oven	-11.242
▁truc	-11.2422
▁extérieur	-11.2435
▁clair	-11.2436
▁iré	-11.2438
▁couch	-11.244
monter	-11.2441
▁lève	-11.2444
▁amable	-11.2454
▁quedé	-11.2461
▁endormi	-11.2468
▁ayud	-11.2468
▁carro	-11.2475
▁dessert	-11.2485
▁tại	-11.2486
▁sofa	-11.2486
▁lesson	-11.2488
▁preocupado	-11.2488
▁apply	-11.2488
ès	-11.249
▁viajar	-11.2494
▁poca	-11.2495
▁dépend	-11.2496
▁cine	-11.2503
▁célèbre	-11.251
▁insist	-11.2512
▁criminal	-11.2524
▁mariée	-11.2526
▁effort	-11.2528
▁aunt	-11.2532
▁argument	-11.2556
▁cuố	-11.2557
▁escuch	-11.2557
unis	-11.2564
xem	-11.2568
▁regarda	-11.2571
▁refrigerator	-11.2576
▁diciendo	-11.2576
▁étage	-11.2576
▁funeral	-11.2576
▁enamorado	-11.2577
▁nulle	-11.2578
▁corner	-11.2579
▁sigui	-11.2585
venido	-11.2586
go	-11.2591
▁viste	-11.2592
▁vingt	-11.2599
▁lên	-11.26
▁ocupada	-11.2602
▁mistaken	-11.2604
▁juic	-11.2605
▁minuto	-11.2606
▁oranges	-11.2611
▁japonés	-11.2617
▁atrás	-11.2622
▁roll	-11.2634
ating	-11.2639
▁frais	-11.2643
▁appel	-11.2645
▁apart	-11.2645
▁président	-11.2654
▁réveillé	-11.2657
▁salar	-11.2659
▁meses	-11.266
▁pit	-11.2663
▁base	-11.2664
▁upsta	-11.2666
▁appartement	-11.2668
▁casado	-11.2668
▁hacía	-11.2668
▁destroy	-11.2668
▁fière	-11.2669
▁suena	-11.267
▁déçu	-11.2671
▁butter	-11.2672
▁comid	-11.2673
▁conclusion	-11.2673
▁ira	-11.2678
▁saving	-11.268
▁tiré	-11.268
▁temperature	-11.268
he	-11.2683
▁hai	-11.2684
▁copine	-11.2684
empêcher	-11.2686
▁assistan	-11.2686
▁attrapé	-11.2686
▁dentist	-11.2686
▁compare	-11.269
▁esos	-11.2691
▁trê	-11.2692
▁montré	-11.2693
▁llegue	-11.2697
▁worri	-11.2698
▁claim	-11.2706
▁slight	-11.2706
▁disponible	-11.2709
io	-11.2715
▁giả	-11.2717
bajo	-11.2733
▁má	-11.2736
▁ningun	-11.2747
▁aura	-11.2754
▁dieu	-11.2756
▁mayoría	-11.2763
▁asiento	-11.2765
▁thà	-11.2768
▁finalmente	-11.2768
▁ravi	-11.2777
▁prêter	-11.279
▁obtenu	-11.2792
▁term	-11.2793
▁état	-11.2798
▁twin	-11.2832
▁sympa	-11.284
▁cocinar	-11.2843
▁emergenc	-11.2854
▁corazón	-11.2854
▁musée	-11.2854
▁apporté	-11.2854
▁thirteen	-11.2854
▁portait	-11.2855
▁actuellement	-11.2855
▁eut	-11.2861
▁hi	-11.2864
▁resign	-11.2865
▁pobre	-11.2886
▁mienne	-11.2887
▁suggestion	-11.2887
▁entiende	-11.2889
▁irse	-11.2894
▁diente	-11.2901
▁absurd	-11.2906
▁sortie	-11.2914
▁choisir	-11.2916
▁completa	-11.2921
ément	-11.293
▁esas	-11.2937
▁copy	-11.2942
bido	-11.2944
▁conoces	-11.2948
▁advantage	-11.2948
▁amazing	-11.2948
▁request	-11.2948
▁accustom	-11.2949
▁examination	-11.2949
▁abrigo	-11.2949
▁comiendo	-11.2949
▁mirando	-11.295
▁weak	-11.2952
▁empieza	-11.2955
▁préférerais	-11.2955
▁evitar	-11.2956
ramos	-11.2957
ans	-11.2961
▁eh	-11.2963
▁credit	-11.2964
▁mamá	-11.2965
▁seront	-11.2968
▁verlo	-11.2968
▁accomplish	-11.2972
▁sau	-11.2973
▁baisse	-11.2984
▁fil	-11.2989
▁towel	-11.299
▁traje	-11.2992
▁sushi	-11.3006
▁respecto	-11.3012
ance	-11.3013
▁membre	-11.3016
▁ugl	-11.3018
▁lẽ	-11.3033
▁precio	-11.3038
▁eventual	-11.3042
▁cinéma	-11.3044
▁necesario	-11.3044
▁aquella	-11.3045
▁desayuno	-11.3046
▁vayas	-11.3057
▁pressure	-11.3065
▁escucha	-11.3065
▁société	-11.3072
▁repeat	-11.3092
chose	-11.3095
pain	-11.3105
▁voilà	-11.3111
▁correcto	-11.3113
▁jeter	-11.3116
▁alegr	-11.3117
▁fruits	-11.3118
▁brazo	-11.312
▁accent	-11.3128
▁em	-11.3129
▁azúcar	-11.314
▁attempt	-11.314
▁orgulloso	-11.314
▁rush	-11.3141
▁friday	-11.3141
▁policier	-11.3141
▁disparu	-11.3143
▁pescado	-11.3144
▁pourrions	-11.3145
▁marido	-11.3146
▁llegado	-11.3149
▁notes	-11.3149
▁các	-11.3156
▁quedarse	-11.3157
▁forcé	-11.3174
▁possède	-11.3174
▁helado	-11.3174
ième	-11.3188
▁argue	-11.3195
▁siente	-11.3196
▁sinh	-11.3198
▁achète	-11.3202
▁connu	-11.3205
▁felices	-11.3208
▁gana	-11.3214
▁hir	-11.322
ante	-11.3221
▁haces	-11.3225
▁estés	-11.3233
▁promenade	-11.3237
▁gentleman	-11.3237
▁protéger	-11.3238
▁envers	-11.3238
▁castle	-11.3238
▁olvidó	-11.3238
▁instructions	-11.3239
▁refusé	-11.3241
▁légumes	-11.3242
▁behave	-11.3246
▁anciano	-11.3246
▁possibilité	-11.3248
ưở	-11.3253
▁terrifi	-11.3255
selo	-11.3259
by	-11.3259
▁cielo	-11.3265
▁menu	-11.3265
bió	-11.3265
▁dile	-11.3283
▁bowl	-11.3283
▁gate	-11.3288
aive	-11.3293
▁dumb	-11.3298
▁élèves	-11.33
▁winn	-11.3329
▁escritorio	-11.3335
▁airplane	-11.3335
▁humeur	-11.3335
▁magnifique	-11.3335
▁foolish	-11.3335
▁vôtre	-11.3336
▁failure	-11.3336
▁artist	-11.3338
▁tierra	-11.334
▁olvidé	-11.3346
▁actor	-11.3349
▁conduit	-11.3351
▁violence	-11.3352
▁album	-11.3354
▁boil	-11.3355
▁ouvre	-11.3357
co	-11.3359
▁correr	-11.3361
▁hill	-11.3363
▁cu	-11.3367
▁claro	-11.3372
▁nak	-11.3374
▁ayude	-11.3389
town	-11.3395
▁aimeriez	-11.3395
▁amo	-11.3411
▁daño	-11.3415
rnos	-11.3421
▁reconnu	-11.3431
▁ambulance	-11.3434
▁snake	-11.3434
▁propia	-11.3434
▁pieza	-11.3434
▁convaincre	-11.3434
▁folle	-11.3435
▁blow	-11.3436
▁ex	-11.3443
▁imaginé	-11.345
▁improve	-11.3455
▁tendrá	-11.346
▁changement	-11.3478
▁preguntar	-11.3489
▁hicier	-11.3493
▁té	-11.3493
▁absolu	-11.3496
▁lors	-11.3497
▁abandonner	-11.3497
▁prudente	-11.35
▁grateful	-11.3504
▁intéressante	-11.3506
▁grass	-11.3508
▁creía	-11.3515
▁disappear	-11.3534
▁aeropuerto	-11.3534
▁iglesia	-11.3534
▁botella	-11.3534
▁llueve	-11.3534
▁regular	-11.3535
▁sérieusement	-11.3536
▁escrito	-11.3536
▁injure	-11.3537
▁prepare	-11.3539
▁resultado	-11.3539
▁sombre	-11.3539
▁candle	-11.3542
▁customer	-11.3543
▁demás	-11.3543
▁langues	-11.355
▁église	-11.3551
▁cambio	-11.3555
▁master	-11.3555
▁unique	-11.3557
▁posé	-11.3558
▁découvert	-11.3562
▁élevé	-11.3565
▁promesse	-11.3581
▁cartes	-11.3584
▁volume	-11.3584
▁hole	-11.3594
▁gustaba	-11.3594
▁br	-11.3606
▁dé	-11.3614
▁étudié	-11.3621
▁sharp	-11.3624
▁plate	-11.3632
▁gouvernement	-11.3633
▁borracho	-11.3635
▁experiencia	-11.3635
▁speed	-11.3635
▁incredibl	-11.3636
▁chouette	-11.3636
▁permettre	-11.3636
▁paix	-11.3638
▁faux	-11.3638
▁dicen	-11.364
ize	-11.3643
▁octobre	-11.3646
▁khó	-11.365
▁escap	-11.3655
▁lower	-11.3658
▁visa	-11.3663
ée	-11.3667
▁bleu	-11.3669
▁morte	-11.3669
▁embrassé	-11.3671
▁joué	-11.3676
▁seuls	-11.3684
▁valise	-11.3684
▁area	-11.3701
▁vivi	-11.3707
intéresse	-11.3727
▁sentí	-11.3729
▁engine	-11.373
▁econom	-11.3731
▁joindre	-11.3733
▁tient	-11.3735
▁agréable	-11.3737
▁politique	-11.3737
éteindre	-11.3737
▁amoureuse	-11.3737
▁pueblo	-11.3737
▁soldat	-11.3738
▁tongue	-11.3738
▁banana	-11.3738
▁dommage	-11.3739
▁adult	-11.3741
▁delay	-11.3746
tió	-11.3751
▁rencontrés	-11.3753
▁novio	-11.3755
hìn	-11.3765
▁progress	-11.3767
▁product	-11.3777
▁đá	-11.3778
▁responsibilit	-11.3781
▁ésta	-11.3781
hier	-11.3782
▁periódico	-11.3786
▁abord	-11.3788
▁disgust	-11.3788
cima	-11.3791
▁gaf	-11.3798
▁préférée	-11.3803
▁précis	-11.3804
▁chocolat	-11.3806
▁planes	-11.3819
▁durmiendo	-11.384
▁audienc	-11.384
▁siguiente	-11.384
▁arbres	-11.3841
▁provide	-11.3841
▁fluent	-11.3841
▁debt	-11.3842
▁plat	-11.3844
▁normalmente	-11.3845
▁express	-11.3845
rove	-11.3862
▁admitt	-11.387
▁sentía	-11.387
▁noticias	-11.3878
▁pleasure	-11.3878
▁verme	-11.388
▁reglas	-11.3883
▁monte	-11.3889
▁woods	-11.3891
mi	-11.3891
▁india	-11.3893
▁cigarette	-11.3893
▁prévois	-11.3895
▁tras	-11.3897
▁orden	-11.3906
▁lune	-11.3908
▁crayon	-11.391
▁sos	-11.3915
▁manzanas	-11.3927
like	-11.3933
▁focus	-11.3944
▁enfermedad	-11.3944
▁illegal	-11.3944
▁website	-11.3944
▁rumeur	-11.3944
▁further	-11.3945
▁approach	-11.3946
▁boisson	-11.3946
▁futuro	-11.3952
▁deporte	-11.3952
▁tam	-11.3957
▁lead	-11.3958
▁vuelve	-11.3963
▁intentar	-11.3964
▁hello	-11.3965
▁fashion	-11.397
▁serons	-11.3973
▁mostrar	-11.3979
▁luce	-11.3981
▁congé	-11.3989
▁cough	-11.3997
▁ligne	-11.3999
▁sentado	-11.4001
▁accuse	-11.4003
▁accepté	-11.4004
▁médicament	-11.4005
▁caro	-11.4013
▁couper	-11.4014
▁ri	-11.4029
▁sept	-11.4034
▁vario	-11.4037
entendre	-11.4047
▁compagnie	-11.405
▁espérons	-11.405
▁récemment	-11.405
▁ensuite	-11.405
▁empleo	-11.405
▁pierre	-11.405
▁friendship	-11.4051
▁piso	-11.4053
▁incendie	-11.4053
▁threaten	-11.4054
▁croit	-11.4054
▁celles	-11.4055
▁devait	-11.4055
▁dort	-11.4056
▁bonita	-11.4056
temps	-11.4061
▁toward	-11.4065
▁hall	-11.4069
▁tempt	-11.4071
▁assure	-11.4071
▁explicar	-11.4082
▁prisa	-11.4091
▁hermanos	-11.4105
▁devenue	-11.4118
at	-11.4125
▁dirais	-11.4133
▁buenos	-11.4134
▁desert	-11.4135
▁portable	-11.4143
▁véritable	-11.4156
▁plaindre	-11.4156
▁chaleur	-11.4156
▁chicago	-11.4156
▁tarta	-11.4157
▁limit	-11.4158
▁increase	-11.416
▁reply	-11.4162
▁fallait	-11.4162
▁writer	-11.4165
▁tenez	-11.4166
▁spot	-11.4167
có	-11.417
▁khác	-11.4172
▁sensible	-11.4175
▁contrat	-11.4177
▁remettre	-11.4181
▁fan	-11.4183
▁mo	-11.4189
▁espere	-11.419
ré	-11.4194
▁sabemos	-11.4195
▁nez	-11.421
▁mai	-11.4213
▁mensonge	-11.4215
entreteni	-11.4219
▁compar	-11.4229
▁salga	-11.4229
▁arms	-11.423
▁prendra	-11.4243
▁droite	-11.4245
▁insult	-11.4246
ridge	-11.4253
▁engage	-11.4259
▁forest	-11.4261
▁marriage	-11.4263
▁papá	-11.4264
▁illness	-11.4264
▁ngủ	-11.4264
▁hiểu	-11.4264
▁fortunate	-11.4265
▁encontrado	-11.4265
▁cheer	-11.4266
▁mission	-11.4266
▁puente	-11.4266
▁favorita	-11.4266
▁ordenador	-11.4267
▁pêcher	-11.4267
▁com	-11.4269
▁résultats	-11.427
▁deaf	-11.4274
▁coupable	-11.4277
lieu	-11.4278
▁clima	-11.428
▁budge	-11.4284
▁moyens	-11.4294
▁llena	-11.4295
▁parar	-11.4311
▁pale	-11.4313
▁imagin	-11.4322
▁torta	-11.4322
▁corde	-11.4323
▁consult	-11.4323
▁band	-11.4324
ân	-11.4328
▁soupe	-11.433
▁pars	-11.4338
▁auras	-11.434
▁spread	-11.4346
▁complaint	-11.4348
▁confuse	-11.4348
▁diferencia	-11.4355
▁pared	-11.4364
▁dejé	-11.4372
▁faint	-11.4372
▁unusual	-11.4372
▁navire	-11.4372
▁comprenez	-11.4373
▁peel	-11.4373
▁attentivement	-11.4373
▁ocho	-11.4374
▁leído	-11.4374
▁sopa	-11.4375
▁weigh	-11.4379
▁reviens	-11.438
▁gian	-11.4384
▁improbable	-11.4391
▁rencontrée	-11.4392
▁paire	-11.4395
lew	-11.4398
▁aire	-11.4401
▁fuimos	-11.4404
▁estudian	-11.4407
▁ennemi	-11.4409
▁entra	-11.4413
▁veía	-11.4421
▁skirt	-11.4428
▁camion	-11.4433
▁domingo	-11.4437
▁pose	-11.4438
soyons	-11.4451
▁vain	-11.4452
▁fasses	-11.446
ire	-11.4468
▁essaya	-11.4478
▁portefeuille	-11.4482
▁printemps	-11.4482
▁proyecto	-11.4482
▁scientist	-11.4482
▁vuestra	-11.4482
▁esperanza	-11.4482
▁verdaderamente	-11.4483
▁hâte	-11.4486
▁afin	-11.4487
phone	-11.4492
▁farm	-11.4493
line	-11.4494
▁ayudarme	-11.4495
▁bà	-11.4495
ink	-11.4498
▁accus	-11.4511
▁attractive	-11.4515
▁rob	-11.4522
▁definite	-11.4524
▁amiga	-11.4549
▁lời	-11.4558
▁trucs	-11.4563
▁member	-11.4565
▁commis	-11.4574
▁sweat	-11.4586
▁bottom	-11.4593
▁mirror	-11.4593
▁salaire	-11.4594
▁bolsa	-11.4594
▁volveré	-11.4595
▁separate	-11.4597
▁laid	-11.4598
▁pescar	-11.4599
dieron	-11.4605
▁prêtes	-11.4612
ical	-11.4612
▁shape	-11.4614
▁demi	-11.4616
▁denie	-11.4617
▁échoué	-11.4619
▁écris	-11.4621
▁proper	-11.4621
▁bouche	-11.4622
▁dios	-11.4641
▁unit	-11.4644
qué	-11.4647
▁cigarettes	-11.4648
▁igual	-11.4655
▁caché	-11.4657
▁mud	-11.4658
▁soucie	-11.4661
▁stress	-11.4661
▁trap	-11.4665
▁coût	-11.4674
▁allergi	-11.468
îmes	-11.4704
▁île	-11.4706
▁exchange	-11.4706
▁habrá	-11.4706
▁inmediatamente	-11.4706
▁roja	-11.4706
▁soldado	-11.4709
▁débarrasser	-11.4709
▁careless	-11.4714
▁foule	-11.4717
▁đấy	-11.4719
▁informations	-11.4719
▁règle	-11.4721
sense	-11.4721
▁âgé	-11.4722
▁sembles	-11.4726
▁bleed	-11.4727
▁verde	-11.4728
▁cố	-11.4732
▁confess	-11.4734
▁principal	-11.474
▁puzzle	-11.4756
▁violent	-11.4763
▁số	-11.4769
▁recuerda	-11.4777
▁idioma	-11.4778
▁noticia	-11.4781
vint	-11.4791
vuelto	-11.48
▁voler	-11.4808
▁prestar	-11.4811
▁temo	-11.4812
▁sino	-11.4813
▁frappé	-11.4818
▁silencieux	-11.4819
▁suspicious	-11.4819
▁ocean	-11.4819
▁corbata	-11.4819
▁south	-11.4819
▁correctement	-11.4821
▁perd	-11.4826
▁nouveaux	-11.483
▁hug	-11.4832
excuser	-11.4833
▁education	-11.484
▁assistant	-11.4843
▁members	-11.4864
▁llega	-11.4877
▁peint	-11.488
▁diar	-11.489
▁egg	-11.4895
▁local	-11.4896
▁intéressée	-11.491
▁almorzar	-11.4912
▁vraie	-11.4919
▁hunt	-11.4927
▁disagree	-11.4931
▁stomach	-11.4934
▁particulier	-11.4934
▁culp	-11.4934
▁segundo	-11.4934
▁guapa	-11.4935
▁amount	-11.4935
▁shout	-11.4935
▁raro	-11.4936
▁excusez	-11.4937
▁valor	-11.4937
▁retraite	-11.4937
▁semanas	-11.4938
ries	-11.4938
▁sorprendido	-11.4941
▁hable	-11.4941
▁pro	-11.4945
▁center	-11.4947
▁voisins	-11.4949
▁haberlo	-11.495
▁luna	-11.4953
▁connaisse	-11.4962
▁arrêt	-11.4985
▁demandez	-11.499
ivent	-11.4997
▁grands	-11.5002
▁conocía	-11.5009
▁miracle	-11.501
▁propio	-11.501
▁aurez	-11.5014
▁ama	-11.5016
▁voit	-11.5031
▁skin	-11.5036
▁lies	-11.5039
▁joy	-11.5044
▁limpiar	-11.5046
▁escribe	-11.5047
▁hero	-11.5049
▁mémoire	-11.505
▁passeport	-11.505
▁scold	-11.5051
▁nhau	-11.5052
▁supper	-11.5054
▁cloche	-11.5056
▁acostumbrado	-11.5056
▁drawer	-11.5062
▁mirar	-11.5064
▁parlent	-11.5067
▁noon	-11.5068
▁campo	-11.5073
▁horses	-11.5085
▁decidid	-11.5086
▁cab	-11.5089
▁circulati	-11.5091
▁honor	-11.5095
▁grade	-11.5104
▁nage	-11.5107
▁lavar	-11.5108
▁điệ	-11.512
▁hesitate	-11.512
▁cartas	-11.5126
▁depress	-11.5129
▁source	-11.5139
gun	-11.5148
▁tuyo	-11.5151
▁interesa	-11.516
▁fifteen	-11.5168
▁útil	-11.5169
▁đợ	-11.5169
▁tormenta	-11.517
▁urgence	-11.517
bed	-11.5173
▁conseilla	-11.5174
▁paseo	-11.5177
▁raté	-11.518
▁swear	-11.5183
▁réalité	-11.5188
▁cierra	-11.5189
▁raconter	-11.5189
▁touche	-11.5193
▁informe	-11.5197
ated	-11.52
alice	-11.5201
▁recibi	-11.5212
▁occupés	-11.5213
▁tourne	-11.5225
▁mauvaises	-11.5241
▁famoso	-11.5247
▁predict	-11.5258
▁levantar	-11.5259
▁material	-11.526
▁rentre	-11.5277
▁comporte	-11.5281
▁venus	-11.5282
▁firm	-11.5284
▁nouvel	-11.5284
▁gọ	-11.5287
▁luego	-11.5287
▁wealth	-11.5287
▁podrá	-11.5287
▁percent	-11.5288
▁offend	-11.529
▁réelle	-11.5294
▁election	-11.5306
▁spare	-11.5307
▁dulce	-11.5307
▁nước	-11.531
▁chaude	-11.5311
▁japonaise	-11.5323
▁pique	-11.5324
▁éteint	-11.5326
▁cita	-11.5327
▁tourist	-11.5331
▁breathe	-11.5332
▁cave	-11.5336
▁domingos	-11.5336
▁dan	-11.5344
▁amusé	-11.535
▁bald	-11.5353
▁privé	-11.5355
▁nació	-11.5356
▁pardon	-11.5357
▁settle	-11.5363
▁thi	-11.5368
▁donnerai	-11.5371
▁original	-11.5372
▁shake	-11.5383
though	-11.5395
▁obligée	-11.54
▁paraît	-11.5401
▁drugs	-11.5402
▁major	-11.5406
▁público	-11.5408
▁costume	-11.5408
▁lloviendo	-11.5408
▁devient	-11.5408
▁incapable	-11.5408
▁inutile	-11.5408
êu	-11.5409
▁program	-11.541
▁preparado	-11.541
▁pareille	-11.541
liable	-11.5414
▁cacher	-11.5416
arage	-11.5423
▁instituteur	-11.5428
▁dingue	-11.5429
▁hasard	-11.5431
▁beside	-11.5432
▁manquer	-11.5435
▁ngo	-11.5435
zo	-11.5435
▁shave	-11.5437
parents	-11.5443
▁arreglar	-11.5447
▁lack	-11.5449
▁alegra	-11.5459
▁concentrate	-11.5461
era	-11.5463
▁idiota	-11.5467
▁sore	-11.5471
ncluso	-11.5473
▁permitir	-11.5491
▁enfadado	-11.5491
▁timide	-11.5495
▁robar	-11.5496
▁bâ	-11.5509
▁ponga	-11.5521
▁chère	-11.5522
▁encuentra	-11.5529
▁épaule	-11.5529
▁carrera	-11.553
▁rabbit	-11.553
▁santa	-11.5531
▁bench	-11.5531
▁eleven	-11.5532
▁attitude	-11.5532
▁refaire	-11.5533
▁départ	-11.5533
▁blesser	-11.5533
▁mangez	-11.5533
▁dure	-11.5536
▁aquello	-11.5536
▁merece	-11.5537
▁deliver	-11.5541
▁sepa	-11.5548
▁línea	-11.555
▁exception	-11.5552
jado	-11.5563
▁buenas	-11.5564
más	-11.5566
▁arrière	-11.5584
▁sand	-11.5584
▁monté	-11.5589
▁caus	-11.559
▁combat	-11.5595
▁lean	-11.5598
his	-11.5602
▁comí	-11.5607
▁écouté	-11.5611
▁incident	-11.5612
▁cuidar	-11.5614
▁prenons	-11.5616
attends	-11.5643
▁conduis	-11.5652
▁resto	-11.5653
▁ridiculous	-11.5653
▁spider	-11.5653
▁gunshot	-11.5653
▁model	-11.5653
▁populaire	-11.5653
▁coward	-11.5653
▁vitesse	-11.5653
▁duerme	-11.5654
▁successful	-11.5655
▁vieja	-11.5655
▁switch	-11.5656
▁odd	-11.5656
▁sortez	-11.5658
ôi	-11.5661
▁drug	-11.5662
▁text	-11.5664
▁volverá	-11.5664
▁pone	-11.5666
▁blessée	-11.5667
▁mobile	-11.5676
▁haute	-11.5678
▁souri	-11.5679
ección	-11.5681
▁thin	-11.5681
▁prendrai	-11.5681
▁casó	-11.5684
▁heureuses	-11.5684
▁capa	-11.5691
▁cesse	-11.5695
▁lycée	-11.5695
▁bé	-11.5701
▁varia	-11.5706
▁inter	-11.5707
▁flat	-11.5708
▁dado	-11.5708
dando	-11.5716
▁lave	-11.5736
▁abuel	-11.5747
▁deny	-11.5755
▁confident	-11.5766
▁custom	-11.5766
monos	-11.5771
▁equal	-11.5772
▁bả	-11.5773
▁tenu	-11.5775
▁résolu	-11.5777
▁coger	-11.5777
▁evidenc	-11.5778
▁mathematic	-11.5778
▁piscine	-11.5778
▁relationship	-11.5778
▁alternative	-11.5778
▁croyez	-11.5778
▁leftover	-11.5779
▁queréis	-11.578
▁heavi	-11.5782
▁pesar	-11.5784
▁sentez	-11.5784
▁chanceux	-11.5788
▁réveiller	-11.5788
▁ayons	-11.5791
darte	-11.5791
▁facture	-11.5794
▁marrant	-11.5795
attendre	-11.5797
▁puedas	-11.5799
glass	-11.5811
▁commun	-11.5812
▁perfecto	-11.5822
▁pertenece	-11.5828
▁hacen	-11.5829
▁experiment	-11.5839
▁morts	-11.5846
▁nap	-11.5848
aide	-11.5852
▁planet	-11.5865
▁invités	-11.5866
▁suggère	-11.5866
▁vivant	-11.5873
▁pies	-11.5873
▁junto	-11.5879
▁compras	-11.5883
▁bomb	-11.5885
rá	-11.5889
▁bienvenue	-11.5897
▁exercice	-11.5905
▁énergie	-11.5905
▁oferta	-11.5905
▁devraient	-11.5905
▁glove	-11.5905
▁suffit	-11.5905
▁capta	-11.5906
▁valeur	-11.5908
▁ré	-11.5912
▁crack	-11.5912
▁farmer	-11.5916
airs	-11.5931
▁llegará	-11.5933
ường	-11.5942
assurer	-11.5943
▁rempli	-11.5962
pite	-11.5963
▁arma	-11.5967
▁oublier	-11.5972
▁consciente	-11.5985
avais	-11.5986
▁profunda	-11.5994
▁visité	-11.5995
▁paga	-11.6003
▁poche	-11.6006
▁appelez	-11.6008
▁pop	-11.6012
▁enferma	-11.6017
das	-11.6019
▁herido	-11.6022
▁menor	-11.6023
▁nettoye	-11.6024
▁application	-11.6033
▁estudio	-11.6033
▁responsabilité	-11.6033
▁broma	-11.6033
▁essayons	-11.6034
▁olvidado	-11.6034
▁twel	-11.6035
▁fuiste	-11.6035
▁flute	-11.6035
▁abandonné	-11.6037
▁levanta	-11.6038
▁mariés	-11.6039
gái	-11.604
▁sorprendi	-11.6046
▁electrici	-11.605
▁impliqué	-11.6053
▁información	-11.6055
▁roto	-11.606
▁beaut	-11.6062
▁pet	-11.6062
▁agreement	-11.6062
▁presidente	-11.6064
▁jeans	-11.6067
▁nail	-11.6084
▁veste	-11.6091
jo	-11.6103
▁hici	-11.6105
▁relative	-11.6111
▁détails	-11.6114
▁aceptar	-11.6118
▁silencio	-11.6121
▁seas	-11.6121
amuser	-11.6141
▁prometi	-11.6144
▁pray	-11.6152
surance	-11.6153
▁saint	-11.6154
▁tele	-11.6156
▁wild	-11.616
▁preferiría	-11.6163
▁veinte	-11.6163
▁enojado	-11.6163
▁gustó	-11.6163
▁leader	-11.6166
▁matemáticas	-11.617
▁places	-11.617
▁reposer	-11.6172
▁respond	-11.6173
▁entend	-11.6174
▁retourne	-11.6179
▁permiso	-11.6186
▁restée	-11.6188
▁passez	-11.6192
▁éviter	-11.6195
▁countr	-11.6201
▁gars	-11.6203
▁causé	-11.6206
▁tenté	-11.6218
▁sauvé	-11.6222
▁delight	-11.6244
▁espalda	-11.6253
quise	-11.6276
▁bộ	-11.6282
▁riz	-11.6293
▁expliqué	-11.6294
▁musician	-11.6294
▁grupo	-11.6294
▁peinture	-11.6295
▁current	-11.6295
▁despacio	-11.6295
▁repente	-11.6296
inquiéter	-11.6296
▁trampa	-11.6297
▁brown	-11.6299
▁joueur	-11.6299
▁objection	-11.63
▁belt	-11.63
▁agradable	-11.6301
▁ailles	-11.6303
attend	-11.6304
▁value	-11.6307
▁author	-11.6312
▁disait	-11.6313
▁site	-11.6314
▁darle	-11.6315
▁block	-11.6318
▁tienne	-11.6322
▁styl	-11.6324
▁bagages	-11.6324
▁abre	-11.6326
za	-11.6329
▁soportar	-11.6335
ge	-11.6337
▁thick	-11.634
ie	-11.6342
▁idiomas	-11.6342
▁depende	-11.6343
▁conscient	-11.6343
▁médicaments	-11.6357
▁contest	-11.6364
▁modern	-11.6369
près	-11.638
▁trompé	-11.6381
tic	-11.6384
▁seules	-11.6386
▁destin	-11.6387
▁construit	-11.6387
▁existe	-11.6392
▁failli	-11.6393
▁delicio	-11.6402
▁termina	-11.641
▁correo	-11.6417
▁vert	-11.6423
▁campagne	-11.6428
▁elephant	-11.6428
▁arroz	-11.6428
▁cheek	-11.6428
▁botón	-11.6428
▁password	-11.6428
▁lápiz	-11.6428
▁notebook	-11.6428
▁régime	-11.6428
▁poker	-11.6428
▁mosquito	-11.6429
▁matinée	-11.6429
▁vivía	-11.644
▁mentira	-11.6443
▁saviez	-11.6443
▁soft	-11.6448
▁cambi	-11.6454
▁buscar	-11.6459
▁fenêtres	-11.6465
▁olvidar	-11.6465
▁robbe	-11.6469
▁rate	-11.6469
▁sauce	-11.6469
▁parado	-11.6471
▁build	-11.6472
▁downst	-11.6474
ter	-11.6478
icious	-11.65
▁larme	-11.65
▁lettres	-11.6509
▁dare	-11.6518
▁nerve	-11.6523
▁già	-11.6533
▁faible	-11.654
▁supplie	-11.6543
▁roi	-11.6545
▁deseo	-11.6546
▁offert	-11.6548
▁sink	-11.6553
▁curtain	-11.6563
▁traduir	-11.6563
▁juge	-11.6563
▁théorie	-11.6564
▁verdadero	-11.6564
▁marre	-11.6565
▁commandé	-11.6567
▁utilis	-11.6567
▁rara	-11.6568
▁aburrido	-11.6569
tención	-11.657
▁tirer	-11.6571
▁rescue	-11.6581
▁digo	-11.6583
▁skier	-11.6586
▁tao	-11.6594
▁li	-11.6597
▁tuviera	-11.6597
▁field	-11.6599
▁lion	-11.6608
▁contacto	-11.6617
▁pill	-11.6628
▁reservation	-11.6631
▁houses	-11.6635
▁boit	-11.6637
▁interpret	-11.6643
▁gather	-11.6649
▁dust	-11.665
▁accusé	-11.6652
▁queso	-11.6653
▁plainte	-11.6655
▁wheel	-11.6659
imos	-11.6662
▁maman	-11.6663
▁medicina	-11.6664
▁pastel	-11.6665
▁visiter	-11.6667
▁couvert	-11.6668
▁despierto	-11.6674
cut	-11.6675
▁hacerte	-11.6678
▁parking	-11.6681
▁enemigo	-11.6682
▁100	-11.6684
▁voitures	-11.6684
▁electric	-11.6685
▁object	-11.6686
▁voyons	-11.6686
▁contain	-11.6691
▁action	-11.6691
▁defend	-11.6693
▁nation	-11.6695
▁employé	-11.6695
▁challenge	-11.6695
stars	-11.6696
▁vosotr	-11.6699
▁bosque	-11.67
▁pintura	-11.67
▁raisonnable	-11.67
▁teenager	-11.67
▁bicyclette	-11.67
▁spill	-11.6702
▁cambiado	-11.6702
▁trouvait	-11.6705
▁sauver	-11.6705
▁menteur	-11.6705
side	-11.6707
▁approve	-11.6708
▁coma	-11.6716
▁connaissait	-11.6718
▁dish	-11.6719
▁apolog	-11.672
gré	-11.6722
▁seguridad	-11.6723
▁tourner	-11.6728
▁limite	-11.673
▁dijer	-11.6732
▁receiv	-11.6737
▁prêté	-11.6738
▁social	-11.6743
écrire	-11.6745
▁intelligente	-11.6751
▁voisin	-11.6751
▁huit	-11.6758
ware	-11.6769
▁tombe	-11.6777
▁empleado	-11.6778
▁spen	-11.6779
▁elect	-11.6788
▁sert	-11.679
▁effrayé	-11.6796
▁servir	-11.6797
▁poet	-11.6801
▁neck	-11.6804
▁cri	-11.6806
place	-11.6809
▁pot	-11.681
luck	-11.6819
▁doigt	-11.6823
▁dollar	-11.6826
▁cap	-11.6827
▁strike	-11.683
studies	-11.6834
▁false	-11.6839
▁miembro	-11.6839
▁satisfecho	-11.6839
▁genius	-11.6839
▁principio	-11.6839
▁europa	-11.6839
▁osaka	-11.6839
▁bucket	-11.6839
▁insane	-11.6839
▁resfriado	-11.6839
▁dislike	-11.684
▁comportement	-11.6842
▁llamada	-11.6846
▁clos	-11.685
▁pousser	-11.6854
▁maleta	-11.6861
▁encuentro	-11.6862
▁différentes	-11.6863
▁mise	-11.6863
▁compra	-11.687
▁dices	-11.6875
aies	-11.6875
▁tonto	-11.6876
aurais	-11.6882
▁sáng	-11.6883
▁assister	-11.6887
▁arrivés	-11.6888
▁repos	-11.6891
▁ojo	-11.6891
ers	-11.6896
▁alcool	-11.6898
▁guide	-11.6899
▁aurions	-11.6901
▁nor	-11.6905
yó	-11.6912
irte	-11.6912
▁nhậ	-11.6919
▁postpone	-11.6924
▁viendrai	-11.6928
▁profit	-11.6928
▁spell	-11.693
▁viré	-11.6933
▁disculpa	-11.6936
▁sientes	-11.6936
▁enseigne	-11.6937
▁planté	-11.6948
▁photograph	-11.6955
▁voie	-11.6958
▁aimer	-11.696
▁terminée	-11.6965
ine	-11.6969
▁casar	-11.6973
▁cerrar	-11.6976
▁página	-11.6979
▁sorpresa	-11.6979
▁tuần	-11.6979
▁flood	-11.6979
▁nhiêu	-11.6979
▁serviette	-11.6979
▁dizz	-11.698
▁coincidence	-11.698
▁release	-11.6981
▁code	-11.6981
▁nervioso	-11.6983
▁montrez	-11.6983
▁compraste	-11.6984
▁mintiendo	-11.6984
▁aim	-11.6986
▁inform	-11.6987
▁remove	-11.6987
▁cassée	-11.6988
▁brisé	-11.6989
▁sentimientos	-11.6991
▁prise	-11.6993
▁acab	-11.7001
ncia	-11.7002
oir	-11.7004
▁toilettes	-11.7008
▁foreigner	-11.7019
▁kế	-11.702
▁promet	-11.7022
truck	-11.7025
▁programme	-11.7027
▁correcta	-11.7036
▁dors	-11.7054
▁anger	-11.7061
▁coupe	-11.7063
▁motor	-11.7067
▁state	-11.7068
▁difficultés	-11.7077
▁tratar	-11.7087
▁canadien	-11.7106
▁preuve	-11.711
▁parvenu	-11.7122
▁frecuencia	-11.7122
▁jóvenes	-11.7122
▁desperate	-11.7122
▁escalier	-11.7123
▁burst	-11.7123
▁prestado	-11.7124
▁temple	-11.7125
▁compliqué	-11.7125
▁conocido	-11.7127
▁mưa	-11.7131
▁board	-11.7137
▁chansons	-11.7141
▁fassiez	-11.7146
▁package	-11.715
▁holding	-11.7153
▁fume	-11.717
▁invitée	-11.7174
▁parie	-11.7174
▁génial	-11.718
tom	-11.7191
iste	-11.72
▁grandi	-11.7201
▁baja	-11.7206
▁lâche	-11.7229
▁mer	-11.7232
▁cansada	-11.724
1	-11.7241
▁trai	-11.7246
▁siège	-11.7251
▁bolígrafo	-11.7255
▁résultat	-11.7258
▁moto	-11.7259
▁cris	-11.726
ráfico	-11.7265
áo	-11.7266
▁máquina	-11.7267
▁nosotras	-11.7267
▁discurso	-11.7267
▁politician	-11.7267
▁nativo	-11.7267
▁medical	-11.7268
▁skill	-11.7268
▁trường	-11.7268
▁frase	-11.7268
▁samedi	-11.7268
▁malheureusement	-11.7268
▁centro	-11.7269
▁parlait	-11.7269
▁ladró	-11.727
▁bonito	-11.7271
▁huele	-11.7273
putation	-11.7273
▁despise	-11.7281
▁pleasant	-11.7286
▁laisserai	-11.7294
▁vus	-11.7295
▁intenté	-11.7302
▁knee	-11.7304
▁examine	-11.7313
paró	-11.732
▁poema	-11.7331
▁cloth	-11.7333
wise	-11.7334
▁birth	-11.7336
▁addition	-11.7337
▁puissi	-11.7338
▁bố	-11.7346
▁constant	-11.7361
▁cage	-11.7366
▁loan	-11.7374
red	-11.7378
um	-11.7384
▁greet	-11.7388
▁reír	-11.7392
mons	-11.7394
▁décédé	-11.7396
▁politic	-11.7397
▁coupé	-11.7404
▁protest	-11.7409
▁violin	-11.741
▁trompe	-11.7412
▁intérêt	-11.7414
▁sincère	-11.7414
▁punctual	-11.7414
▁supplémentaire	-11.7414
▁opción	-11.7415
▁rápidamente	-11.7415
▁inocente	-11.7415
▁coffre	-11.7416
▁incendio	-11.7416
▁boda	-11.7418
▁démissionner	-11.7422
▁relieve	-11.7423
▁interesado	-11.7424
▁irá	-11.7424
▁partis	-11.7428
▁traiter	-11.7429
▁collection	-11.7431
▁achieve	-11.7434
▁tema	-11.7437
coat	-11.7439
misunderstanding	-11.7441
▁assise	-11.7454
▁appartient	-11.7457
▁mapa	-11.7464
▁sacar	-11.7468
▁vendu	-11.7472
▁tớ	-11.7481
▁tear	-11.7483
▁dentiste	-11.7483
my	-11.7485
▁nu	-11.7485
▁moral	-11.749
▁tien	-11.7491
puse	-11.7505
assi	-11.7506
▁bonheur	-11.7518
▁jur	-11.7519
▁optimist	-11.7537
ines	-11.7541
▁ivre	-11.7542
ga	-11.7545
▁rencontre	-11.7547
▁distract	-11.7555
▁veré	-11.7556
▁étrangère	-11.7558
▁répéter	-11.7559
▁atteint	-11.7563
▁innocence	-11.7563
▁forêt	-11.7563
▁degree	-11.7563
▁volontaire	-11.7564
▁appearance	-11.7564
▁addict	-11.7564
▁izquierda	-11.7569
▁passager	-11.757
▁confidenc	-11.7571
▁dozen	-11.7573
▁cargo	-11.7575
uvo	-11.7576
▁flor	-11.758
▁différente	-11.7583
▁idiote	-11.7585
▁fermée	-11.7587
▁legal	-11.7587
▁fermez	-11.7588
▁subi	-11.7589
▁adelante	-11.7589
▁height	-11.759
▁sonó	-11.7592
▁árboles	-11.7592
▁carrot	-11.7597
▁sangre	-11.7597
ship	-11.7599
▁personnel	-11.7607
▁camin	-11.761
▁bang	-11.7615
▁garer	-11.7619
▁cell	-11.7619
storie	-11.762
▁hielo	-11.7626
▁beard	-11.7635
▁importantes	-11.7638
▁tool	-11.764
▁quyế	-11.764
▁cha	-11.7652
▁épouse	-11.7656
aire	-11.7668
▁solución	-11.767
quisition	-11.7673
▁arriva	-11.7674
▁tomado	-11.7675
▁documento	-11.7676
sors	-11.7683
▁doors	-11.7687
▁discutir	-11.7688
▁probar	-11.7695
▁encourage	-11.7697
▁partes	-11.7699
▁général	-11.7702
▁films	-11.7708
▁culture	-11.7709
▁pelota	-11.7709
▁na	-11.7709
▁lente	-11.771
▁fruta	-11.771
▁écoutez	-11.7712
▁method	-11.7715
▁primavera	-11.7715
▁supermarché	-11.7715
▁anxious	-11.7715
▁odeur	-11.7715
▁bullet	-11.7715
▁profondément	-11.7715
▁north	-11.7715
▁promener	-11.7716
▁museo	-11.7716
▁dépensé	-11.7716
▁américain	-11.7716
▁moteur	-11.7717
▁ducha	-11.7717
▁semblant	-11.7726
▁présente	-11.7729
mitad	-11.7732
▁paciencia	-11.7739
▁bête	-11.7739
▁tanta	-11.7739
▁gusto	-11.7741
▁riches	-11.7746
▁ambition	-11.7751
▁corta	-11.7752
▁screw	-11.7752
▁tuya	-11.7752
light	-11.7758
▁climate	-11.7762
▁escapar	-11.7763
▁beg	-11.7764
▁centre	-11.777
▁lisez	-11.7771
▁vidéo	-11.7784
▁alliez	-11.7787
abajo	-11.7789
▁whale	-11.7798
▁gaz	-11.7803
▁ellas	-11.7807
ront	-11.7809
▁conocí	-11.7814
cents	-11.7814
▁andar	-11.7817
▁doué	-11.7817
▁cam	-11.7838
▁impressionné	-11.7841
▁respondi	-11.7845
low	-11.7852
▁faudra	-11.7867
▁compliment	-11.7869
▁octubre	-11.7869
▁register	-11.7869
▁motorcycle	-11.7869
▁narrow	-11.7869
▁souffle	-11.7869
▁objetivo	-11.7869
▁derecha	-11.7869
▁trả	-11.787
▁douce	-11.787
achete	-11.7871
▁split	-11.7872
▁trou	-11.7873
▁sauter	-11.7875
▁bienvenu	-11.7878
▁mostr	-11.7878
▁depart	-11.788
▁happi	-11.7883
▁wipe	-11.7888
01	-11.7893
▁resterai	-11.7898
▁director	-11.7898
viennent	-11.7898
▁quan	-11.7905
▁rough	-11.7913
▁closet	-11.7914
ọc	-11.7915
▁armée	-11.7917
mêmes	-11.7928
▁système	-11.7936
▁salad	-11.7944
▁feuilles	-11.7946
▁accompanie	-11.7952
▁ignor	-11.7952
▁trae	-11.796
▁blonde	-11.7963
▁hoa	-11.7966
▁data	-11.7973
▁apporte	-11.7973
▁practic	-11.7974
▁dedo	-11.7975
▁queue	-11.7977
▁effective	-11.7979
▁vuelva	-11.7981
▁confirm	-11.7982
▁taxe	-11.7982
▁explic	-11.7983
▁vimos	-11.7987
▁traer	-11.7992
▁espérais	-11.8001
▁apparent	-11.8008
▁strength	-11.8012
▁points	-11.8014
▁fascinat	-11.8015
▁qualit	-11.802
▁adorable	-11.8021
▁prince	-11.8022
▁envelope	-11.8025
▁hurried	-11.8025
▁steak	-11.8025
▁ennuyeux	-11.8025
▁malheureux	-11.8025
▁copain	-11.8026
indiquer	-11.8028
▁clairement	-11.8028
▁sonrió	-11.8029
ouvrit	-11.803
▁pupp	-11.803
▁caisse	-11.8032
▁absoluta	-11.8032
▁offrir	-11.8034
hook	-11.8039
▁apprends	-11.804
▁sommet	-11.804
▁averiguar	-11.8047
▁finding	-11.8049
▁religion	-11.805
▁hammer	-11.8051
▁preparar	-11.8054
▁income	-11.8054
▁ante	-11.8062
▁esconder	-11.8063
▁divide	-11.8065
▁sinti	-11.8075
▁née	-11.8077
▁preocupa	-11.8078
ủ	-11.8083
▁enquête	-11.8088
▁track	-11.8088
▁viento	-11.8092
▁gorge	-11.8094
▁bush	-11.8105
▁produce	-11.8109
▁déjeuné	-11.8118
hớ	-11.8123
▁sew	-11.8124
▁películas	-11.814
▁instrument	-11.8147
▁yens	-11.8154
▁hablas	-11.8155
sence	-11.8162
champ	-11.8165
▁battle	-11.8172
▁evil	-11.8174
▁chicas	-11.8177
▁mars	-11.8178
▁célibataire	-11.8184
▁jaloux	-11.8184
▁throat	-11.8184
▁generous	-11.8184
▁froze	-11.8184
▁ouvrage	-11.8184
▁average	-11.8184
▁merveilleux	-11.8184
▁professional	-11.8184
▁harto	-11.8184
▁llorando	-11.8184
▁explicación	-11.8184
▁stunn	-11.8184
▁convient	-11.8184
▁robado	-11.8185
▁positive	-11.8185
▁diario	-11.8185
▁construction	-11.8185
▁annulé	-11.8188
▁aurons	-11.8188
istic	-11.8188
▁disputer	-11.8192
▁américa	-11.8198
▁vui	-11.8199
▁isla	-11.8199
▁ac	-11.82
▁cour	-11.8201
▁jugador	-11.8204
▁gardé	-11.8208
▁influence	-11.821
▁traversé	-11.8214
▁profesora	-11.8215
▁biscuits	-11.8218
▁tax	-11.8225
▁decidir	-11.8227
▁concerne	-11.8227
house	-11.8242
▁llame	-11.8242
▁entendi	-11.8247
led	-11.8248
ước	-11.8248
▁réveillée	-11.8249
▁slice	-11.8249
▁lumières	-11.8255
▁fuerza	-11.8257
daré	-11.8261
ớ	-11.8261
▁load	-11.8264
▁comi	-11.8272
▁metro	-11.8275
▁computador	-11.8279
▁oro	-11.8279
▁witness	-11.8281
▁charm	-11.8287
▁sucedi	-11.829
▁duda	-11.8291
▁amaba	-11.8293
▁convencer	-11.8297
▁toucher	-11.8302
▁aside	-11.8303
▁affect	-11.8309
▁rappel	-11.8313
▁fold	-11.8315
▁creí	-11.832
▁âgée	-11.8321
▁pilot	-11.8328
▁desayunar	-11.8335
room	-11.8337
▁valuable	-11.834
▁panne	-11.8341
▁fog	-11.8342
▁corre	-11.8344
▁gym	-11.8345
▁brief	-11.8345
▁diamond	-11.8345
▁flauta	-11.8345
▁stubborn	-11.8345
▁professor	-11.8345
▁flashlight	-11.8345
▁classmate	-11.8345
▁grape	-11.8345
▁beginner	-11.8345
▁blanket	-11.8346
▁effet	-11.8346
▁disposons	-11.8346
▁oscuro	-11.8348
▁piedra	-11.8349
▁mix	-11.8349
▁cessé	-11.8351
▁ést	-11.8351
▁pierna	-11.8352
▁bouger	-11.8353
▁gentille	-11.8358
mago	-11.8358
▁begg	-11.8359
▁hagamos	-11.8361
▁otras	-11.8363
▁visitor	-11.8368
▁escrib	-11.8369
▁amus	-11.8369
▁necesitan	-11.8373
▁exemple	-11.8376
▁hablan	-11.8376
▁chant	-11.8382
talement	-11.8385
▁boot	-11.839
▁respira	-11.8396
dos	-11.8404
raw	-11.8405
▁wide	-11.8406
▁brain	-11.8414
▁trappe	-11.8425
▁crise	-11.8427
▁occupées	-11.843
▁urgente	-11.8434
▁escaleras	-11.8434
▁peindr	-11.8437
▁starv	-11.8452
▁vegetarian	-11.8454
▁rappele	-11.8459
▁projets	-11.8472
béis	-11.8474
▁proof	-11.8476
▁clients	-11.8484
▁nettoy	-11.8493
▁replace	-11.8496
▁defeat	-11.85
dado	-11.85
▁affair	-11.8501
▁meurtre	-11.8502
▁couramment	-11.8509
▁ejercicio	-11.8509
▁infirmière	-11.8509
▁enfance	-11.8509
▁sofá	-11.8509
▁detalle	-11.8509
▁ceinture	-11.8509
▁knowledge	-11.851
▁pound	-11.851
▁hermoso	-11.851
▁tremblement	-11.8511
▁disposez	-11.8512
▁fox	-11.8513
▁entier	-11.8513
▁sérieuse	-11.8514
▁rendit	-11.8515
▁últimamente	-11.8516
▁cuerda	-11.8516
▁bitter	-11.8518
▁promesa	-11.8518
▁manejar	-11.8519
▁prohibit	-11.852
heure	-11.8522
▁modo	-11.8522
▁suyo	-11.8525
▁madera	-11.8527
▁batterie	-11.8531
▁assiette	-11.8536
▁event	-11.854
▁arrives	-11.854
▁hàng	-11.854
▁chút	-11.8551
▁eras	-11.8551
▁essayai	-11.8558
▁conocer	-11.8563
▁pleur	-11.8565
▁capacidad	-11.8567
▁manges	-11.8568
▁servi	-11.8569
▁fork	-11.8572
▁primo	-11.8573
▁agrada	-11.8583
éis	-11.8588
▁limpia	-11.8596
▁prévenu	-11.8598
▁xu	-11.86
▁pièces	-11.8602
▁dù	-11.8603
▁perdón	-11.8613
▁path	-11.8616
▁joues	-11.8617
▁enemi	-11.862
▁thô	-11.8624
dail	-11.8625
▁remark	-11.8625
▁blanca	-11.8628
▁malin	-11.8629
▁remis	-11.8633
▁hazl	-11.8644
▁import	-11.8645
▁debía	-11.8645
▁conoci	-11.865
▁matins	-11.8651
▁vues	-11.8666
▁fac	-11.8669
▁prouver	-11.8669
▁quédate	-11.8671
▁span	-11.8671
étais	-11.8673
riez	-11.8674
▁paie	-11.8674
▁cárcel	-11.8676
▁excelente	-11.8676
▁lincoln	-11.8676
▁tarjeta	-11.8676
▁terremoto	-11.8676
▁distancia	-11.8676
▁casualidad	-11.8676
▁trozo	-11.8676
▁vacía	-11.8676
▁square	-11.8676
▁atteindre	-11.8677
▁gr	-11.8677
▁corrió	-11.8677
▁ouvrez	-11.8677
▁prisión	-11.8678
▁trunk	-11.8678
▁linda	-11.8678
▁entrance	-11.8679
▁manner	-11.868
▁chaqueta	-11.8684
v	-11.8685
▁guste	-11.8686
▁enviar	-11.8687
▁comporta	-11.8688
▁vuelo	-11.8689
▁preocupes	-11.8697
▁bound	-11.8697
▁unexpected	-11.8699
▁jette	-11.8699
b	-11.87
▁memoria	-11.8708
▁warning	-11.8719
▁tend	-11.8727
▁soif	-11.8731
▁oublierai	-11.8732
▁devin	-11.8737
cción	-11.8737
▁rely	-11.8738
▁honesto	-11.8744
▁beurre	-11.8748
▁fer	-11.8748
▁ho	-11.8758
▁nois	-11.8769
▁tru	-11.8773
▁cherches	-11.8774
▁consigui	-11.8774
▁.000	-11.8798
▁oreilles	-11.8816
▁gra	-11.882
▁extraña	-11.8821
▁vine	-11.8823
▁peg	-11.8834
prendí	-11.8838
▁continua	-11.8839
▁complex	-11.8839
hallowe	-11.884
▁rejoindr	-11.8845
▁cuerpo	-11.8845
▁proximité	-11.8845
▁scientifique	-11.8845
▁sonrisa	-11.8845
▁chauffeur	-11.8845
▁conference	-11.8845
▁connaissais	-11.8846
▁đư	-11.8846
avait	-11.8847
▁cantante	-11.8848
▁premio	-11.8848
▁gardez	-11.8848
▁souhaitez	-11.8848
▁department	-11.8849
▁cure	-11.8851
▁pure	-11.8852
▁bajó	-11.8853
▁aveugle	-11.8855
▁cerrada	-11.886
shed	-11.8865
▁sợ	-11.8869
▁traite	-11.8871
▁rosa	-11.8873
▁automobile	-11.8873
▁proteger	-11.8874
▁survenu	-11.8875
aciones	-11.8879
▁pipe	-11.888
▁robber	-11.8881
▁bản	-11.8881
▁veniez	-11.8883
▁mil	-11.8888
▁chu	-11.8889
▁décida	-11.889
▁aprendi	-11.8892
▁concentr	-11.8892
▁molesta	-11.8896
▁silver	-11.8898
▁critique	-11.8903
▁fatigués	-11.8904
▁meter	-11.8908
▁comenzar	-11.8908
▁multitud	-11.8911
▁sabé	-11.8912
▁pece	-11.8915
▁étagère	-11.8919
▁porté	-11.893
▁hoàn	-11.8931
▁termine	-11.8931
▁vente	-11.8936
▁essay	-11.8947
ary	-11.8953
▁resist	-11.8962
ít	-11.8965
▁mental	-11.8965
▁thu	-11.8975
▁quant	-11.8978
▁grown	-11.9001
sión	-11.9003
▁découvrir	-11.9004
▁restes	-11.9009
▁trace	-11.901
▁grant	-11.9011
▁moque	-11.9011
▁posibilidad	-11.9018
▁ridicule	-11.9018
▁actress	-11.9018
▁château	-11.9018
▁pepper	-11.9018
▁topic	-11.9018
▁période	-11.9018
▁claus	-11.9019
▁crawl	-11.9019
▁coach	-11.902
▁tì	-11.9021
▁delante	-11.9021
▁nourrir	-11.9025
▁mangent	-11.9029
▁nerveuse	-11.9032
▁poème	-11.9035
▁entrada	-11.9035
▁galletas	-11.9036
▁assurance	-11.9036
▁command	-11.9037
▁aimais	-11.904
teur	-11.9043
▁embrasser	-11.9044
▁choc	-11.9046
▁allumé	-11.9046
▁tra	-11.905
▁donnée	-11.905
▁tense	-11.9054
▁acabado	-11.9055
▁celebrate	-11.9056
▁sheet	-11.906
▁jeux	-11.9061
▁épouser	-11.9068
▁países	-11.907
▁edge	-11.9078
bi	-11.9078
▁bake	-11.9079
▁pouv	-11.908
▁poli	-11.9085
▁mont	-11.9089
▁bonjour	-11.9093
▁bow	-11.9093
▁skinn	-11.9095
lines	-11.9102
▁rome	-11.911
book	-11.9111
ùng	-11.9129
échapper	-11.9139
▁chó	-11.9146
▁.»	-11.9148
▁port	-11.9154
▁profond	-11.9163
▁dises	-11.9175
▁soudain	-11.9179
▁supporte	-11.9186
▁entendue	-11.9187
▁habits	-11.9192
▁cáncer	-11.9193
▁particulière	-11.9193
▁unemploy	-11.9193
▁clef	-11.9193
▁basura	-11.9193
▁fresco	-11.9193
▁detective	-11.9193
▁billetera	-11.9194
▁fake	-11.9194
▁selfish	-11.9195
▁détendre	-11.9196
▁preguntaba	-11.9198
▁tendre	-11.9199
▁casarse	-11.9199
itive	-11.92
▁salvo	-11.9203
▁fiable	-11.9203
▁corto	-11.9208
▁portez	-11.921
▁doigts	-11.9213
▁hermanas	-11.9213
corn	-11.9217
▁fantasma	-11.9222
▁fría	-11.9225
▁enseña	-11.9227
▁vende	-11.9229
▁yenes	-11.9231
▁chatte	-11.9234
▁descubri	-11.9238
courir	-11.924
appellerai	-11.9243
▁resource	-11.9245
▁myster	-11.9248
▁abandonar	-11.9248
▁commit	-11.9262
▁brillante	-11.9268
gage	-11.9268
▁cercle	-11.9269
▁conductor	-11.927
▁ordinaire	-11.9271
▁lemon	-11.9274
▁bán	-11.9277
▁ascenseur	-11.9283
▁revienne	-11.9285
▁pénétr	-11.9288
▁volar	-11.9295
▁distingue	-11.9301
▁design	-11.9308
▁disposé	-11.931
▁task	-11.9313
▁ressenti	-11.9315
▁ơn	-11.9319
▁utilisé	-11.9321
▁meters	-11.9323
conscious	-11.9331
▁tenue	-11.9332
▁determine	-11.935
▁pelea	-11.9351
echó	-11.9353
▁copie	-11.9353
▁crédit	-11.9357
▁artiste	-11.9367
▁pregnan	-11.9372
▁propósito	-11.9372
▁température	-11.9372
▁pneu	-11.9372
▁medianoche	-11.9372
▁pasaporte	-11.9372
▁decidí	-11.9372
▁calcet	-11.9372
▁recibí	-11.9372
▁colline	-11.9372
▁destination	-11.9372
▁propuesta	-11.9372
▁amitié	-11.9373
▁cherchez	-11.9374
▁descanso	-11.9375
▁mathématiques	-11.9376
▁vague	-11.9376
▁justice	-11.9379
▁socie	-11.9379
▁spoil	-11.9382
▁jaune	-11.9386
▁mignonne	-11.9388
▁laissée	-11.9391
▁énorme	-11.9392
▁frankl	-11.9398
▁promotion	-11.9402
ortó	-11.9405
▁surround	-11.9412
▁commençons	-11.9413
ist	-11.9414
rais	-11.9415
▁forces	-11.9415
▁dejara	-11.9416
▁bấ	-11.942
▁rica	-11.9428
▁border	-11.9434
▁balance	-11.9436
cated	-11.9439
▁precios	-11.9442
▁virus	-11.9449
▁agir	-11.9454
▁dépense	-11.9464
▁promesses	-11.9469
▁spécial	-11.9473
▁nuev	-11.9493
▁lavé	-11.9499
▁timbres	-11.9502
▁objet	-11.9511
▁dérangé	-11.9518
▁surge	-11.9518
▁apareci	-11.9522
▁blanche	-11.9522
▁touché	-11.953
▁soul	-11.9531
▁dudo	-11.9535
▁petits	-11.9535
▁pronounce	-11.9537
▁mecs	-11.9538
iên	-11.9543
pression	-11.9548
▁cogi	-11.9551
▁diagnos	-11.9553
▁handkerchief	-11.9553
▁horreur	-11.9553
▁leçon	-11.9553
▁genial	-11.9553
▁gobierno	-11.9554
▁voulaient	-11.9554
▁dificultad	-11.9554
▁blessure	-11.9554
▁jogg	-11.9554
▁sheep	-11.9556
▁crop	-11.9556
▁rompu	-11.9557
▁medication	-11.9558
▁metal	-11.9558
▁motivo	-11.9559
▁client	-11.9559
▁souffre	-11.956
▁wire	-11.9561
▁carpet	-11.9563
▁robot	-11.9565
▁rende	-11.9567
▁melt	-11.9568
▁vivid	-11.9573
▁scratch	-11.9579
▁leí	-11.9579
▁partez	-11.9579
▁sec	-11.9579
▁mignon	-11.958
▁ô	-11.9583
▁texto	-11.9584
tes	-11.9584
seguida	-11.9587
▁vete	-11.9588
▁verrai	-11.9591
▁allées	-11.9593
▁organiz	-11.9593
▁connect	-11.9594
endré	-11.9604
venait	-11.9606
▁kilos	-11.9608
fumée	-11.9609
▁computadora	-11.9615
▁réponses	-11.9615
▁cien	-11.9616
▁escond	-11.9617
▁puni	-11.9618
▁hé	-11.9623
▁occurre	-11.9628
▁improv	-11.963
ouse	-11.9631
▁écrivez	-11.9633
▁besar	-11.9637
▁courte	-11.9647
▁hables	-11.9649
▁joli	-11.965
eth	-11.9652
▁agent	-11.9654
atro	-11.9655
▁cortar	-11.9656
▁suffisant	-11.9663
men	-11.9663
▁quedaré	-11.9675
▁polic	-11.9677
▁romper	-11.9678
▁vender	-11.9678
▁cows	-11.9679
▁ignorer	-11.9681
▁gia	-11.9682
▁futur	-11.9684
embrasser	-11.9686
▁dispar	-11.9688
▁calcul	-11.9692
eció	-11.9699
▁saison	-11.9719
andis	-11.9726
▁hablado	-11.9731
▁envoyer	-11.9738
curit	-11.9738
▁artículo	-11.9739
▁crème	-11.9739
▁immeuble	-11.9739
▁inmediato	-11.9739
▁kyoto	-11.9739
▁journaux	-11.9739
▁monkey	-11.9739
▁oscuridad	-11.9739
▁fiebre	-11.9739
▁japoneses	-11.9739
▁tiroir	-11.9739
▁enorme	-11.9739
▁servicio	-11.9739
▁bolso	-11.974
▁bague	-11.974
▁égard	-11.9741
▁discuté	-11.9741
▁aimerait	-11.9743
▁tomato	-11.9744
▁independen	-11.9744
occupe	-11.9746
▁cessez	-11.9749
▁curieux	-11.9749
▁bơi	-11.9752
▁pressé	-11.9754
▁cruz	-11.9758
▁enseign	-11.9759
▁humble	-11.9761
▁política	-11.9766
▁revista	-11.9766
▁flag	-11.9767
lapto	-11.9769
▁chanteur	-11.9771
▁simpl	-11.9771
▁quiera	-11.9775
▁soi	-11.9791
▁censée	-11.9792
▁déçue	-11.9792
▁attendons	-11.9793
▁oreille	-11.9793
▁pe	-11.9796
▁rater	-11.9798
▁retirer	-11.9801
▁pregunté	-11.9801
▁salí	-11.9802
▁declar	-11.9803
▁lawn	-11.9806
▁leak	-11.9807
▁flics	-11.9809
▁nhận	-11.9812
▁échappé	-11.9813
▁frog	-11.9814
ture	-11.982
▁cumplir	-11.9822
▁brosse	-11.9822
▁spy	-11.9825
▁accompan	-11.9826
rajo	-11.9827
▁ladder	-11.9832
▁abra	-11.9839
▁ja	-11.9842
▁mode	-11.9842
▁existen	-11.9843
▁enseignante	-11.9846
▁brand	-11.9849
▁ocurrir	-11.9853
▁glance	-11.9855
nique	-11.9855
▁refusa	-11.9858
▁importar	-11.9862
▁barbe	-11.9866
box	-11.9869
▁principale	-11.9869
▁habituée	-11.987
▁nga	-11.9873
▁adapt	-11.9882
▁cola	-11.9895
▁hugg	-11.9896
cent	-11.9898
arrête	-11.9902
sentait	-11.991
▁pasará	-11.9911
diré	-11.9912
▁emporter	-11.9913
▁fondo	-11.9914
ển	-11.9919
▁jure	-11.9921
▁spectac	-11.9927
▁burglar	-11.9927
▁bậ	-11.9927
▁demasiada	-11.9927
▁fièvre	-11.9927
▁fábrica	-11.9927
▁pérdida	-11.9927
▁alibi	-11.9927
▁unfair	-11.9927
▁viernes	-11.9927
▁tendance	-11.9927
▁segunda	-11.9928
▁surface	-11.9928
▁pouviez	-11.9928
▁ferions	-11.9928
▁mondiale	-11.9928
▁investigation	-11.9929
▁empresa	-11.9929
▁passage	-11.9929
▁ailleurs	-11.993
▁ciego	-11.9931
▁travaillez	-11.9933
▁jouez	-11.9933
▁banane	-11.9935
▁escuché	-11.9937
▁resemble	-11.9938
▁producto	-11.9938
applique	-11.9939
▁llamado	-11.9939
cuenta	-11.9941
▁shin	-11.9942
▁souhait	-11.9948
adamente	-11.9957
ới	-11.9958
▁russia	-11.9958
▁déranger	-11.9961
aimes	-11.9965
▁charger	-11.9965
ison	-11.997
▁tarte	-11.9972
▁hablaba	-11.9972
▁contacter	-11.9974
▁partons	-11.9974
▁cache	-11.9978
▁cerrado	-11.9984
▁victim	-11.9988
▁aliments	-11.999
▁excellente	-11.9998
▁tail	-11.9999
▁bat	-12
▁faith	-12.0001
▁laissa	-12.0004
▁bajar	-12.0012
▁plaint	-12.0013
▁fâché	-12.0013
mener	-12.0015
▁genou	-12.0015
▁posa	-12.0015
▁usage	-12.0016
▁refus	-12.0018
▁officer	-12.003
▁authorit	-12.0036
▁permit	-12.0039
▁insect	-12.0043
▁gramma	-12.0046
▁tía	-12.0048
aré	-12.0048
ques	-12.0052
▁pitch	-12.0054
▁princess	-12.0054
▁cur	-12.006
▁applie	-12.0061
▁bleue	-12.0069
▁pala	-12.0071
▁reduce	-12.0071
▁debate	-12.0079
▁vaisselle	-12.0081
▁apagar	-12.0082
▁regal	-12.0085
ants	-12.0085
▁planea	-12.0085
▁mec	-12.0097
achiez	-12.01
▁brûle	-12.0112
▁regresar	-12.0112
▁saoul	-12.0116
▁acordar	-12.0118
▁ajedrez	-12.012
▁lágrima	-12.012
▁mueble	-12.012
▁supermercado	-12.012
▁thorough	-12.012
▁maestro	-12.012
▁bọ	-12.012
▁gratis	-12.012
▁lugg	-12.012
▁xong	-12.012
▁operation	-12.012
▁atrapado	-12.0121
▁absoluto	-12.0121
▁éstos	-12.0121
▁carretera	-12.0121
demain	-12.0121
▁suivant	-12.0122
▁pedirle	-12.0128
▁écrivain	-12.0128
▁burie	-12.013
▁bienvenido	-12.0131
▁lapin	-12.0132
▁travaillent	-12.0133
▁engineer	-12.0136
ka	-12.0139
ương	-12.014
▁chaussettes	-12.0146
▁profonde	-12.0153
▁muchacho	-12.0158
▁mang	-12.016
▁casada	-12.0161
▁crimen	-12.0164
▁crier	-12.0167
▁objectif	-12.0168
scis	-12.0169
▁loup	-12.0172
▁loser	-12.0172
▁fantasti	-12.0172
▁gratuit	-12.0173
▁bug	-12.0179
land	-12.0179
▁actions	-12.018
▁subir	-12.0192
zco	-12.0193
▁ocupados	-12.0193
▁ajouter	-12.0194
▁cares	-12.0194
▁noms	-12.0195
▁purs	-12.0195
▁production	-12.02
▁circle	-12.0202
▁fuss	-12.0204
▁terme	-12.0205
▁banc	-12.0206
▁réalisé	-12.0212
▁garé	-12.0216
▁chuy	-12.023
ội	-12.0232
▁camping	-12.0237
▁reject	-12.0245
▁fate	-12.0248
▁traité	-12.0248
headed	-12.0251
▁dieta	-12.0256
▁fonctionner	-12.0256
▁journalist	-12.0262
ou	-12.0271
▁sentai	-12.0272
ium	-12.0273
▁temperatur	-12.029
▁caer	-12.0294
▁préfér	-12.03
▁attract	-12.03
arse	-12.0302
▁piernas	-12.0307
▁épuisé	-12.0315
ncidence	-12.0316
▁oxyg	-12.0316
▁monsieur	-12.0316
▁thoại	-12.0316
▁évident	-12.0316
▁arriba	-12.0316
▁confectionné	-12.0316
▁sistema	-12.0316
▁discusión	-12.0316
▁picasso	-12.0316
âc	-12.0316
▁japonesa	-12.0316
▁travaillons	-12.0316
▁frequent	-12.0316
▁trouves	-12.0316
▁léger	-12.0317
▁cuidadoso	-12.0318
▁efficace	-12.0318
▁pride	-12.0319
▁protection	-12.032
▁deuxième	-12.032
▁mentiroso	-12.0322
▁đường	-12.0322
▁loyer	-12.0325
▁remonte	-12.0326
▁ease	-12.0326
▁réfléchi	-12.0328
▁techo	-12.0328
▁poulet	-12.0331
▁battu	-12.0335
▁froide	-12.0338
▁parvenir	-12.0341
ban	-12.0342
ú	-12.0343
▁contestar	-12.0344
▁travailles	-12.0346
▁monnaie	-12.0368
▁teng	-12.0369
▁dispuesto	-12.037
▁préfères	-12.0371
▁blessés	-12.0375
▁moneda	-12.0382
▁pintar	-12.0386
eza	-12.0394
come	-12.0395
▁présenté	-12.0405
▁meuble	-12.0411
▁reconnaissante	-12.0412
▁bella	-12.0415
▁informé	-12.0416
▁étoiles	-12.0418
ade	-12.0419
iers	-12.0419
avant	-12.0425
▁beso	-12.0426
▁apr	-12.0435
▁quitte	-12.0443
▁fous	-12.0454
▁cơ	-12.0455
▁belles	-12.0456
▁prof	-12.0461
▁organize	-12.0463
▁humano	-12.0468
▁arrivent	-12.0469
▁surprising	-12.0472
▁souris	-12.0475
▁marcha	-12.048
▁sincere	-12.0482
▁effect	-12.0484
▁égal	-12.05
▁elegir	-12.05
▁research	-12.0505
▁flow	-12.0505
▁national	-12.0507
▁tap	-12.0507
▁owner	-12.0513
▁compañero	-12.0516
▁fausse	-12.0516
▁helicopter	-12.0516
▁minuit	-12.0516
▁piège	-12.0516
▁augmentation	-12.0516
▁bargain	-12.0516
▁guarantee	-12.0516
▁financial	-12.0516
▁connaissons	-12.0516
▁quartier	-12.0516
▁cometido	-12.0516
▁voudrait	-12.0517
▁political	-12.0517
▁estuviste	-12.0518
thetic	-12.0518
▁translation	-12.0518
▁báo	-12.0523
▁enseigner	-12.0524
▁continuez	-12.0524
▁access	-12.0526
▁pistola	-12.053
▁contrarié	-12.0535
▁tâche	-12.0538
▁choqué	-12.0545
▁univers	-12.0547
▁thay	-12.0547
▁economic	-12.0548
▁float	-12.0551
ue	-12.0555
▁ocurr	-12.0556
▁poches	-12.0558
▁sábado	-12.0561
▁pinta	-12.0565
▁dormí	-12.0569
▁nhé	-12.0569
▁cou	-12.0569
▁ngô	-12.0581
▁latin	-12.0583
▁casse	-12.0585
▁perdue	-12.0587
▁besó	-12.0587
▁bitte	-12.0588
▁incorrect	-12.0588
enait	-12.0593
▁score	-12.0594
▁arena	-12.0598
▁supone	-12.0601
▁liquide	-12.0601
▁éveillé	-12.0603
▁bible	-12.0604
▁passait	-12.0604
▁sour	-12.0607
▁row	-12.0618
ged	-12.0624
▁tape	-12.0626
▁ravie	-12.0629
▁mist	-12.0634
▁chest	-12.0645
▁beaux	-12.0656
▁seize	-12.0657
oblige	-12.0661
appartient	-12.0661
▁tri	-12.0666
▁loca	-12.0671
▁capit	-12.0678
▁doble	-12.0681
▁autorisée	-12.0682
▁voter	-12.0687
ése	-12.0697
▁underestimate	-12.0703
▁develop	-12.0717
▁resta	-12.0718
uôn	-12.0719
▁abierto	-12.072
▁cuadro	-12.072
▁espacio	-12.072
▁hamburger	-12.072
▁peanut	-12.072
▁poupée	-12.072
▁strawberr	-12.072
▁trabajó	-12.072
▁ausencia	-12.072
▁présence	-12.072
▁volley	-12.072
▁somme	-12.072
▁bromeando	-12.072
▁sleeve	-12.072
▁pillow	-12.072
▁nariz	-12.072
▁tiger	-12.072
▁encontraste	-12.072
▁gordo	-12.0721
▁cartera	-12.0721
▁increíble	-12.0721
▁saxo	-12.0722
▁vivons	-12.0723
▁venues	-12.0726
▁trouvez	-12.0728
▁œuvre	-12.0729
▁beauté	-12.0732
▁amaze	-12.0734
▁partager	-12.0744
taste	-12.0745
utum	-12.0748
guère	-12.075
▁défi	-12.075
▁économie	-12.0754
▁cá	-12.0755
▁deviner	-12.0755
▁traitement	-12.0757
▁coincé	-12.0761
▁llevas	-12.0763
▁solas	-12.0765
▁pourrai	-12.0765
▁citizen	-12.0771
▁bribe	-12.0771
▁viva	-12.0782
▁entera	-12.0786
▁parada	-12.0786
▁humo	-12.079
▁lourd	-12.0792
entero	-12.0792
▁musical	-12.0793
▁descansar	-12.0796
▁retiré	-12.0797
ities	-12.0801
▁rentrée	-12.0805
▁letra	-12.0811
▁vint	-12.0814
▁fis	-12.0815
▁talento	-12.0816
▁performan	-12.0818
▁recibir	-12.0822
▁magic	-12.0829
▁prudents	-12.083
▁permitt	-12.0834
rieron	-12.0838
▁tậ	-12.0839
▁presente	-12.0843
▁pré	-12.0844
▁viviend	-12.0848
▁chasse	-12.0859
▁goat	-12.0866
▁salvar	-12.0867
▁detest	-12.0867
▁jouet	-12.0871
▁impatiente	-12.0876
▁dura	-12.0898
▁feras	-12.0899
▁stepp	-12.0902
▁announce	-12.0902
▁flu	-12.0904
wer	-12.0905
▁cow	-12.0919
▁trous	-12.0923
▁celebrat	-12.0924
▁violon	-12.0927
▁araignée	-12.0928
▁courrier	-12.0928
▁mexico	-12.0928
▁piscina	-12.0928
▁réfrigérateur	-12.0928
▁asesinato	-12.0928
▁facilidad	-12.0928
▁hockey	-12.0928
▁adentro	-12.0928
▁cuisinier	-12.0928
▁sentie	-12.0929
▁cottage	-12.0929
▁consequence	-12.0929
▁equivocada	-12.0929
▁blackboard	-12.0929
▁hombro	-12.0929
▁ferons	-12.093
▁quantité	-12.0931
▁statue	-12.0932
▁unlock	-12.0933
▁partage	-12.0934
▁bote	-12.0937
▁llegamos	-12.0938
▁paz	-12.0944
▁creep	-12.0946
▁treatment	-12.0946
▁surviv	-12.0947
▁dépêcher	-12.0949
▁imaginar	-12.0949
▁trouvée	-12.0951
▁tô	-12.0956
▁míos	-12.0957
▁plain	-12.0958
▁ocultar	-12.0959
▁dépêche	-12.096
▁spoon	-12.0962
▁chạ	-12.0962
▁confianza	-12.0962
▁jouons	-12.0963
▁apunt	-12.0964
▁démarrer	-12.0964
▁universe	-12.0965
ight	-12.0966
▁vọ	-12.0977
▁conscious	-12.0979
▁supiera	-12.0981
▁pre	-12.0983
▁cin	-12.0992
▁ju	-12.0996
▁habillé	-12.1001
▁extrem	-12.1007
▁confí	-12.1013
attendait	-12.1014
▁felicidad	-12.1018
▁perds	-12.1023
▁durer	-12.1028
▁valises	-12.1039
hôn	-12.105
▁allume	-12.1057
▁obra	-12.1061
▁visita	-12.1065
▁raconté	-12.1066
▁calma	-12.1068
▁drawing	-12.1069
▁educa	-12.107
▁hablé	-12.1073
cando	-12.1088
▁sum	-12.1104
▁sex	-12.1105
▁pensado	-12.1106
▁difficiles	-12.1111
▁copies	-12.1113
▁úc	-12.1115
▁salid	-12.1122
▁sabías	-12.1125
▁chanté	-12.1126
▁convenient	-12.1127
▁délicieu	-12.1128
damos	-12.1136
▁escondi	-12.1138
▁appeti	-12.1141
▁brazil	-12.1141
▁españa	-12.1141
▁necesidad	-12.1141
▁sympathique	-12.1141
▁merveilleuse	-12.1141
▁bougie	-12.1141
▁régler	-12.1141
▁admettre	-12.1141
▁sapin	-12.1142
▁gentillesse	-12.1142
▁viniera	-12.1142
▁dérangerait	-12.1142
▁cintur	-12.1142
▁canadienne	-12.1143
▁differ	-12.1143
▁ignorance	-12.1143
▁dormitorio	-12.1143
▁pedido	-12.1143
▁painful	-12.1148
▁auteur	-12.1148
▁sabido	-12.1149
▁trabajador	-12.1151
▁elder	-12.1154
jama	-12.1155
▁déprimé	-12.116
▁sentis	-12.1161
rse	-12.1166
▁charit	-12.1168
▁aidez	-12.1169
▁rotte	-12.117
▁poster	-12.1171
▁herida	-12.1171
▁hechos	-12.1171
▁lớn	-12.1172
weight	-12.1173
▁duré	-12.1174
▁murderer	-12.1174
apprécient	-12.1176
▁allemand	-12.1176
▁vendría	-12.1179
▁significant	-12.1181
leur	-12.1182
▁barato	-12.1182
▁quedara	-12.1184
▁engagé	-12.1186
▁volv	-12.1197
▁desire	-12.1197
avons	-12.1199
▁consta	-12.1199
▁cruzar	-12.1199
▁naranja	-12.1201
▁timbre	-12.1202
▁huevo	-12.1202
▁active	-12.1203
▁depresse	-12.1206
▁bay	-12.1217
▁élection	-12.1218
▁sencilla	-12.1222
▁mù	-12.123
▁decent	-12.1234
▁gritar	-12.1238
▁tante	-12.1248
▁conduite	-12.1249
▁rendue	-12.1249
▁réserve	-12.1251
▁perdit	-12.1253
▁quarter	-12.1254
▁sourd	-12.1254
▁participate	-12.1265
▁sain	-12.1268
▁memorize	-12.1273
▁agarr	-12.1279
▁cuir	-12.1279
▁invitados	-12.128
▁conseille	-12.128
▁paquet	-12.1283
▁vienes	-12.1285
▁esposo	-12.1291
▁serré	-12.1294
▁plantes	-12.1294
▁thư	-12.1296
▁venden	-12.1299
▁pleure	-12.1302
▁ganado	-12.1303
▁herbe	-12.1308
▁chew	-12.1309
▁disposer	-12.1312
▁africa	-12.1312
▁ayudara	-12.1318
▁retir	-12.1319
▁negativ	-12.1326
ándose	-12.1332
ative	-12.1337
▁usine	-12.1341
▁apprécier	-12.1345
▁éducati	-12.1346
pez	-12.1351
▁inde	-12.1354
▁hu	-12.1357
▁misunderst	-12.1358
▁prénom	-12.1358
▁institutrice	-12.1358
▁opposite	-12.1358
▁target	-12.1358
▁televisor	-12.1358
▁pleuve	-12.1358
▁ressens	-12.1358
▁whisper	-12.1358
▁hubiese	-12.1358
▁llámame	-12.1358
▁formulaire	-12.1358
▁théâtre	-12.1358
▁comienza	-12.1358
▁dawn	-12.1358
▁vendredi	-12.1358
▁francia	-12.1358
▁fleuve	-12.1358
▁typhoon	-12.1359
omac	-12.1359
▁cherchais	-12.1359
▁level	-12.1359
▁quasi	-12.1359
▁civil	-12.1359
▁possession	-12.1359
▁jungl	-12.1359
▁miserable	-12.136
ipad	-12.136
▁tranquilo	-12.1361
▁recevoir	-12.1362
▁llueva	-12.1363
▁recibido	-12.1364
▁quince	-12.1366
oûté	-12.1367
▁turk	-12.1369
▁hablante	-12.1369
▁recoger	-12.1373
▁parlais	-12.1373
▁polluti	-12.1377
gland	-12.1378
▁arriverait	-12.1379
▁cierta	-12.1383
▁acepta	-12.1383
▁tente	-12.1383
▁chinois	-12.1387
▁alcanzar	-12.139
▁correos	-12.1395
▁jeté	-12.1396
▁descendre	-12.1399
▁severe	-12.14
▁vemos	-12.1403
call	-12.1407
▁dispos	-12.1409
▁chill	-12.141
▁bouge	-12.1411
▁dépourvu	-12.1418
▁bomba	-12.1422
▁inclin	-12.1434
▁disfrut	-12.1437
▁recuerdas	-12.144
arrêta	-12.1441
try	-12.1442
ond	-12.1447
▁antique	-12.1452
▁apprécierais	-12.1455
hờ	-12.1455
▁approche	-12.1459
▁yard	-12.1463
▁lampe	-12.1467
na	-12.1469
▁echa	-12.147
▁petites	-12.1473
▁claire	-12.1475
▁pêche	-12.1475
▁reserve	-12.1481
▁escribí	-12.1481
▁particip	-12.1497
▁cómodo	-12.1497
▁égo	-12.1501
▁victime	-12.151
▁tomba	-12.1516
▁romanti	-12.152
▁preocupar	-12.1523
▁optimiste	-12.1532
viens	-12.1537
▁héros	-12.154
▁secour	-12.1542
▁patte	-12.1544
▁murier	-12.1544
▁habé	-12.1551
▁batter	-12.1563
ảnh	-12.1566
▁capitale	-12.1568
ací	-12.1569
naissance	-12.1573
▁natif	-12.1575
▁prime	-12.1576
▁distinguir	-12.1576
▁survécu	-12.158
▁character	-12.158
▁horloge	-12.158
▁perplexe	-12.158
▁recommandé	-12.158
▁handwrit	-12.158
▁mediodía	-12.158
▁intersection	-12.1581
▁laundr	-12.1581
▁junio	-12.1581
▁gamin	-12.1581
▁bebida	-12.1581
▁cellphone	-12.1581
▁costumbre	-12.1581
▁llamé	-12.1581
▁buvez	-12.1581
▁souhaiterais	-12.1581
▁racket	-12.1581
▁vợ	-12.1581
▁asseyez	-12.1581
▁bookstore	-12.1581
▁apportez	-12.1582
▁respeto	-12.1582
▁frigo	-12.1582
▁rappelez	-12.1583
▁branche	-12.1583
▁disculpe	-12.1586
▁ayudarnos	-12.1586
▁eve	-12.1586
▁acquér	-12.1588
exprimer	-12.1588
▁stain	-12.1594
▁copia	-12.1594
▁expression	-12.1597
▁ausente	-12.1598
▁naturel	-12.1598
▁invention	-12.1598
nillo	-12.1599
▁consegui	-12.16
▁sieste	-12.1603
▁cantando	-12.1604
▁listos	-12.1604
▁vision	-12.1605
▁destino	-12.1608
▁heureusement	-12.1608
▁uniform	-12.1611
▁detuvo	-12.1611
▁cambia	-12.1615
▁aprendiendo	-12.1617
cal	-12.1617
▁jerk	-12.1618
▁item	-12.162
▁cafeter	-12.1621
▁tip	-12.1625
▁involv	-12.1625
émonos	-12.1625
▁đô	-12.1626
▁souper	-12.1627
▁brit	-12.1628
▁detener	-12.1646
▁bolsillo	-12.1648
▁completo	-12.1648
ennuie	-12.1648
▁oppose	-12.1651
▁nord	-12.1655
▁paquete	-12.1658
▁montra	-12.1659
the	-12.1661
▁diría	-12.1664
▁dump	-12.1664
▁frame	-12.1667
▁solar	-12.1668
▁turno	-12.1671
▁necesite	-12.1672
avaient	-12.1679
▁cometer	-12.1687
ible	-12.1691
▁lava	-12.1692
ages	-12.1698
▁études	-12.17
▁vole	-12.1701
▁presenc	-12.1701
precio	-12.1703
sol	-12.1706
▁measure	-12.1707
▁confía	-12.1718
▁estrella	-12.1719
▁libres	-12.172
mail	-12.172
▁intento	-12.1721
▁vecinos	-12.1722
▁secretar	-12.1723
cy	-12.1726
▁mordu	-12.1726
▁temper	-12.1736
▁đàn	-12.1738
▁interdit	-12.174
ay	-12.1747
ista	-12.1754
vió	-12.1757
▁enfadar	-12.176
▁perdi	-12.1765
▁handy	-12.1781
▁adolescent	-12.1784
▁partit	-12.1795
▁devra	-12.1796
▁contents	-12.1798
▁excité	-12.1803
▁create	-12.1808
▁afortunado	-12.1808
▁similaire	-12.1808
▁eighteen	-12.1808
▁aggressive	-12.1808
▁hogar	-12.1808
▁malentendu	-12.1808
▁washington	-12.1808
▁soap	-12.1808
▁trọng	-12.1808
▁competition	-12.1808
▁científico	-12.1808
▁dîné	-12.1808
▁stink	-12.1809
▁honey	-12.1809
peare	-12.1809
assieds	-12.1809
▁cheerful	-12.1809
▁hauteur	-12.1809
▁asustado	-12.1809
▁bunch	-12.181
▁courageux	-12.1811
▁plaisanter	-12.1814
▁abolish	-12.1815
▁mince	-12.1816
▁personnelle	-12.1819
▁sauté	-12.1821
▁ambitio	-12.1824
▁junk	-12.1825
her	-12.1827
▁norma	-12.183
▁include	-12.1836
▁?»	-12.184
▁prenne	-12.1842
▁plata	-12.1844
▁hola	-12.1845
rons	-12.1847
ura	-12.185
▁vitamin	-12.1853
▁tapi	-12.1857
▁sospecha	-12.1863
envoyer	-12.1866
▁visible	-12.1875
rising	-12.1875
▁invitar	-12.1884
▁démissionn	-12.1885
our	-12.1885
▁relation	-12.1889
▁shakes	-12.1891
eaux	-12.1893
▁poursuivi	-12.1894
▁cesser	-12.1896
▁confortable	-12.1897
▁hojas	-12.1897
▁respecter	-12.1898
▁tendría	-12.1898
este	-12.1898
▁reviendrai	-12.19
▁trahi	-12.1902
rions	-12.1903
▁conducteur	-12.1906
▁profesores	-12.1908
▁frappa	-12.1909
▁adulto	-12.1912
▁saura	-12.1913
j	-12.1918
▁acept	-12.1922
▁brouillard	-12.1927
▁idiots	-12.1936
ito	-12.1943
▁ditch	-12.1954
▁dirige	-12.196
▁durmi	-12.196
▁levanté	-12.1962
▁estrellas	-12.1967
ense	-12.1968
▁practical	-12.1968
▁west	-12.1976
▁prudentes	-12.198
▁oblig	-12.1981
▁armas	-12.1989
▁remarque	-12.1989
▁difficulté	-12.199
▁olvida	-12.1994
▁terribl	-12.1995
▁captur	-12.1996
▁loose	-12.1999
▁bombe	-12.1999
▁despedir	-12.2005
▁coge	-12.2006
▁sonne	-12.2009
êtes	-12.2011
▁swam	-12.2012
▁possibl	-12.2015
ends	-12.2015
▁impatien	-12.2018
▁différents	-12.2018
▁employ	-12.202
necessar	-12.2021
▁disguise	-12.2024
▁fleur	-12.2026
▁passes	-12.2029
▁viennent	-12.2032
wash	-12.2034
rme	-12.2036
▁jewel	-12.2037
▁valiente	-12.2039
▁gueule	-12.204
▁nightmare	-12.204
▁requiere	-12.204
▁unbelievabl	-12.204
▁fassions	-12.204
▁nuclear	-12.204
▁sueldo	-12.204
▁festival	-12.204
▁planète	-12.204
▁réduir	-12.204
▁témoin	-12.204
▁opération	-12.2041
▁acento	-12.2041
▁exprès	-12.2041
▁franchement	-12.2041
uello	-12.2041
▁piense	-12.2041
▁survivor	-12.2042
▁publié	-12.2042
▁centur	-12.2042
▁nube	-12.2042
▁eager	-12.2042
▁juguete	-12.2045
▁ascensor	-12.2046
▁enfermera	-12.2047
▁apporter	-12.2047
▁dạ	-12.2049
▁basement	-12.205
▁saludable	-12.205
▁directe	-12.2051
gué	-12.2053
▁mask	-12.2054
▁fatiguées	-12.2055
▁participer	-12.2055
huit	-12.2056
▁apuesto	-12.2056
▁version	-12.2056
▁literatur	-12.2058
▁preuves	-12.206
▁limpio	-12.2062
enza	-12.2062
▁commentaire	-12.2062
▁attrape	-12.2062
▁bebo	-12.2063
▁priest	-12.2068
▁nombres	-12.2068
▁fonctionn	-12.2068
▁shade	-12.2077
▁urge	-12.2078
▁teoría	-12.2079
▁chase	-12.2079
▁verduras	-12.208
▁purchase	-12.2085
▁produise	-12.2093
mie	-12.2095
▁identit	-12.2097
▁sto	-12.21
▁garb	-12.21
▁raconte	-12.2104
▁choisis	-12.2109
▁cercano	-12.2109
▁accomplir	-12.2111
▁nul	-12.2111
▁matière	-12.2114
dió	-12.2117
know	-12.2118
▁muñeca	-12.2119
▁helpless	-12.2126
iff	-12.2135
▁dancer	-12.2136
ière	-12.2138
▁éclair	-12.214
▁frapper	-12.2143
▁vérifié	-12.2143
yard	-12.2147
▁endormie	-12.2148
▁espace	-12.2149
▁ocupar	-12.2151
▁andando	-12.2155
▁lâ	-12.2165
▁élu	-12.2171
▁montar	-12.2172
▁conserve	-12.2173
ef	-12.2175
▁apaga	-12.2182
▁considéré	-12.2183
▁leva	-12.2197
▁retourné	-12.2201
▁despertar	-12.2201
▁deceive	-12.2202
▁traverse	-12.2207
▁cabell	-12.2207
▁obtuv	-12.221
▁conférence	-12.221
▁pollo	-12.2212
▁permite	-12.2216
▁virer	-12.2219
back	-12.2225
né	-12.2232
▁stage	-12.2234
▁ésa	-12.2235
▁encontr	-12.2236
ves	-12.2239
prendido	-12.2245
erró	-12.2246
▁chế	-12.2255
▁écart	-12.2257
▁chanceuse	-12.2261
▁progr	-12.2266
▁inhabituel	-12.2267
▁reviendra	-12.2269
lación	-12.2269
▁exit	-12.2277
▁acquaint	-12.2278
▁chevaux	-12.2278
▁formidable	-12.2278
▁pickpocket	-12.2278
▁response	-12.2278
▁surrender	-12.2278
▁tattoo	-12.2278
▁comienzo	-12.2278
▁comentario	-12.2278
▁esquina	-12.2278
▁swallow	-12.2278
▁composition	-12.2278
▁sospechoso	-12.2278
▁circum	-12.2278
▁discount	-12.2278
▁clue	-12.2279
▁miroir	-12.2279
▁parís	-12.2279
ennuyer	-12.2279
▁symbol	-12.228
▁poussé	-12.2281
▁outfit	-12.2281
▁retrouver	-12.2282
▁llegaste	-12.2283
▁levantarse	-12.2285
▁couverture	-12.2286
▁prétend	-12.2287
▁thá	-12.2287
▁disiez	-12.2292
▁corriger	-12.2293
▁mirada	-12.2294
▁zone	-12.23
▁seria	-12.2306
▁surf	-12.2307
▁querer	-12.2308
▁semblent	-12.2309
▁exige	-12.231
upon	-12.2315
▁cubierta	-12.2317
apprendre	-12.2318
importe	-12.2318
▁ceremon	-12.2321
shirt	-12.2323
expliquer	-12.233
▁uống	-12.2334
▁khá	-12.2334
▁beb	-12.2337
▁malas	-12.2341
▁chim	-12.2342
▁refuser	-12.2344
▁drogas	-12.2345
▁asistir	-12.2346
▁fund	-12.2347
▁produits	-12.2348
tten	-12.2348
▁reconsider	-12.2349
▁reserva	-12.2351
▁respire	-12.2351
▁mall	-12.2351
▁wave	-12.2352
▁ejemplo	-12.2354
▁considère	-12.2358
pagó	-12.2359
▁conduct	-12.2364
▁fotografía	-12.2365
aurait	-12.2368
▁invitado	-12.2369
▁aîné	-12.237
▁comfort	-12.2373
▁bail	-12.2374
▁toalla	-12.2374
▁mètre	-12.2381
▁encontra	-12.2383
▁grimpe	-12.2385
▁amusée	-12.239
▁ciento	-12.2391
ition	-12.2393
ère	-12.2394
▁llamas	-12.24
▁désespéré	-12.2402
▁brûlé	-12.2404
▁darte	-12.2405
euse	-12.241
▁étudiante	-12.2412
▁descends	-12.2413
▁méchant	-12.2413
▁tratado	-12.2417
▁blessées	-12.2418
▁connaissent	-12.2425
▁accompli	-12.243
▁fournir	-12.2431
reció	-12.2434
eat	-12.2436
▁regretter	-12.2441
▁énervé	-12.2443
▁vuelvas	-12.2444
▁terriblement	-12.2449
▁venta	-12.245
▁illégal	-12.2455
▁arrange	-12.2455
ious	-12.2459
▁aprob	-12.2459
▁determin	-12.2471
▁séjourn	-12.2479
▁march	-12.248
▁candidat	-12.2489
▁breve	-12.2496
▁stupides	-12.2498
orders	-12.25
▁lamp	-12.2508
▁rappelles	-12.2509
arrive	-12.2509
▁lourde	-12.2511
▁canta	-12.2512
▁angel	-12.2513
▁génér	-12.2516
▁ocurri	-12.2518
▁adjust	-12.2519
▁volant	-12.2522
▁antiguo	-12.2522
▁appropriate	-12.2522
▁desperté	-12.2522
▁hábito	-12.2522
▁inevitable	-12.2522
▁locuteur	-12.2522
▁plastic	-12.2522
▁symptom	-12.2522
▁wreck	-12.2522
▁kilometer	-12.2522
▁famosa	-12.2522
▁inútil	-12.2522
▁squeeze	-12.2522
▁récupérer	-12.2522
▁amistad	-12.2522
▁castillo	-12.2522
▁orgullosa	-12.2522
▁génie	-12.2523
▁pâle	-12.2523
▁soudainement	-12.2524
▁remote	-12.2524
▁peau	-12.2524
▁defense	-12.2524
▁gants	-12.2524
▁annuler	-12.2527
▁oye	-12.2528
▁commettre	-12.2531
▁thương	-12.2533
▁preguntarle	-12.2533
▁coûtera	-12.2534
▁sonné	-12.2535
▁blush	-12.2538
▁travailleur	-12.2543
▁tromper	-12.2544
▁lleve	-12.2546
▁remets	-12.255
▁descendu	-12.255
▁prépare	-12.2552
▁noches	-12.256
▁étang	-12.2564
▁dedicate	-12.2567
▁compromise	-12.2567
▁debí	-12.2567
▁pesa	-12.257
▁désir	-12.2575
▁nuages	-12.2579
▁tourna	-12.2584
▁détail	-12.2585
▁dye	-12.259
▁remise	-12.2591
▁painter	-12.2594
▁realiz	-12.2595
▁maria	-12.2598
▁pin	-12.2601
▁réveille	-12.2607
▁decid	-12.2614
▁tires	-12.2614
▁vecino	-12.2616
▁uso	-12.2617
▁cherché	-12.262
endormir	-12.2621
▁électricité	-12.2628
▁funcionar	-12.263
▁almorza	-12.2633
▁vieilles	-12.2636
amuse	-12.2645
ero	-12.2646
▁prisonniers	-12.2646
▁mat	-12.2648
▁retrouvé	-12.265
▁logique	-12.2651
▁encontrará	-12.2656
▁culpar	-12.2657
▁employer	-12.2658
▁coups	-12.2665
▁diplômé	-12.2666
▁tomate	-12.2668
▁irons	-12.2682
▁deber	-12.2683
and	-12.2699
▁naranjas	-12.2702
▁gratuite	-12.2703
▁abuse	-12.2706
▁quinze	-12.2717
▁convaincue	-12.2721
▁invest	-12.2723
▁avantage	-12.273
▁quedan	-12.273
▁presta	-12.2733
▁vaca	-12.2735
▁ital	-12.275
▁bal	-12.2752
hiện	-12.2753
▁séparé	-12.2756
▁iremos	-12.2756
▁océan	-12.2757
stances	-12.2759
▁toothp	-12.2763
▁pleuvra	-12.2771
▁ayúda	-12.2772
▁alphabet	-12.2772
▁courriel	-12.2772
▁cuillère	-12.2772
▁encuentre	-12.2772
▁méthode	-12.2772
▁necklace	-12.2772
▁pasatiempo	-12.2772
▁sándwich	-12.2772
▁tímido	-12.2772
▁évidence	-12.2772
▁gemelo	-12.2772
▁baiser	-12.2772
▁hilton	-12.2772
▁rifle	-12.2772
▁textbook	-12.2772
▁disaster	-12.2773
▁communication	-12.2773
▁amarilla	-12.2773
rry	-12.2773
▁emergencia	-12.2773
▁snack	-12.2773
▁gracioso	-12.2773
▁brake	-12.2773
▁agradecido	-12.2774
▁allergique	-12.2774
▁solaire	-12.2775
▁accusation	-12.2775
▁objective	-12.2775
▁deadline	-12.2775
▁dậy	-12.2775
▁pareja	-12.2775
▁volonté	-12.2775
▁cerdo	-12.2776
▁moda	-12.2776
entends	-12.2777
▁banda	-12.2778
▁lindo	-12.2779
▁remedio	-12.2783
▁profundo	-12.2783
▁traducir	-12.2784
▁attente	-12.2784
▁correcte	-12.2784
▁stake	-12.2785
▁qualité	-12.2786
▁acus	-12.2789
▁dispute	-12.279
▁mark	-12.2798
▁neat	-12.2799
▁sharpen	-12.2799
▁skate	-12.2799
▁tooth	-12.2803
▁reporter	-12.2803
▁hopeless	-12.2803
▁gambl	-12.2805
▁sonido	-12.2806
▁cociner	-12.2807
▁déménag	-12.2814
▁mortes	-12.2817
▁rendrai	-12.2818
dies	-12.2818
attendent	-12.282
▁discuti	-12.2821
▁ayudarle	-12.2828
▁diable	-12.2829
▁honneur	-12.2832
▁accurate	-12.2833
▁croyai	-12.2833
▁détruit	-12.2835
▁naturelle	-12.2837
▁gaspille	-12.284
▁jouai	-12.2847
▁votar	-12.2849
▁skeptic	-12.2858
▁jus	-12.2859
▁riesgo	-12.286
▁désire	-12.2861
▁remercie	-12.2865
▁tune	-12.2865
▁caballero	-12.2865
▁programa	-12.2869
tente	-12.2869
▁sage	-12.2869
▁viejos	-12.287
▁compren	-12.2875
▁élève	-12.2879
▁relat	-12.288
▁trán	-12.2884
▁fli	-12.2889
▁jugo	-12.2891
▁voté	-12.2896
tando	-12.2897
▁bump	-12.29
▁rêver	-12.2901
water	-12.2903
▁cinquante	-12.2904
rage	-12.291
cho	-12.291
▁milla	-12.2912
▁camina	-12.2912
eves	-12.2915
▁apagó	-12.2916
▁satisfaite	-12.2917
▁grimp	-12.2918
▁international	-12.293
▁suspend	-12.2941
ca	-12.2944
▁baissé	-12.2946
▁hecha	-12.295
▁minor	-12.295
▁fingi	-12.295
▁approv	-12.2961
▁pace	-12.2962
▁asia	-12.2963
▁molestar	-12.2964
▁process	-12.2971
neuf	-12.2975
aberlo	-12.2979
▁occur	-12.298
▁absorb	-12.2986
eply	-12.2999
▁decorate	-12.3001
▁ancian	-12.3015
▁sail	-12.3017
▁threat	-12.3018
▁remède	-12.3029
▁squirrel	-12.3029
▁forecast	-12.3029
▁llamo	-12.3029
▁apartamento	-12.3029
▁flour	-12.3029
▁bloom	-12.3029
▁lloró	-12.3029
▁fichier	-12.3029
▁réservation	-12.3029
énerve	-12.3029
▁prévoyez	-12.3029
▁espejo	-12.3029
▁physical	-12.3029
▁collar	-12.303
▁sucio	-12.3031
▁posez	-12.3031
▁preferido	-12.3031
▁grossier	-12.3031
▁emprunté	-12.3032
▁intentarlo	-12.3032
▁pelear	-12.3032
▁llovió	-12.3033
▁dessin	-12.3034
▁entendido	-12.3034
▁sonar	-12.3035
▁carbon	-12.3036
▁connection	-12.3038
▁freak	-12.3039
▁esperó	-12.3039
safortunadamente	-12.304
▁trato	-12.304
▁superbe	-12.3042
▁familier	-12.3043
seando	-12.3044
▁nodd	-12.3044
▁seré	-12.3046
▁faisiez	-12.305
▁chino	-12.3057
action	-12.3064
▁concentre	-12.3065
▁atomi	-12.3067
eats	-12.3067
▁neiger	-12.3068
▁vertige	-12.3069
▁acostar	-12.3069
▁forcée	-12.3069
▁procéd	-12.307
▁phá	-12.307
▁quede	-12.3073
▁goutte	-12.3073
▁millionaire	-12.3074
▁amené	-12.3074
sumo	-12.3089
▁parecer	-12.3092
▁fuma	-12.31
▁alarme	-12.3101
▁précieu	-12.3104
▁soutien	-12.3104
▁personalit	-12.3109
▁ingenuo	-12.3109
▁obéir	-12.311
▁celoso	-12.3111
▁signé	-12.3113
pover	-12.3116
nna	-12.3116
▁applaud	-12.3117
▁firme	-12.312
▁contribute	-12.3121
▁bluff	-12.3123
▁humains	-12.3124
▁pulse	-12.313
▁creativ	-12.3131
maire	-12.3137
▁ennemis	-12.3138
▁dale	-12.3139
▁official	-12.314
▁praise	-12.3143
▁pousse	-12.3143
▁fréquen	-12.315
▁débil	-12.315
done	-12.3154
▁congés	-12.3155
▁spic	-12.3161
urieux	-12.3161
▁soixante	-12.3162
▁vives	-12.3165
▁perform	-12.3168
ạc	-12.3173
▁attaque	-12.3176
▁ordinar	-12.3189
▁retira	-12.3189
▁explode	-12.3194
hui	-12.3213
▁frustrat	-12.3216
▁casados	-12.3218
▁hacerse	-12.3219
▁pequeños	-12.3229
bón	-12.323
▁tuvier	-12.3231
▁descubrir	-12.3233
▁compose	-12.3234
▁whistle	-12.3236
▁necesitar	-12.3247
▁guns	-12.3252
▁observe	-12.3254
▁trouva	-12.3256
▁uniforme	-12.3256
▁suicid	-12.3256
lves	-12.3256
▁asegurar	-12.3259
▁flirt	-12.3262
▁reconnais	-12.3264
▁carrie	-12.3266
berg	-12.3267
▁montrerai	-12.3267
▁intelligen	-12.3268
▁bàn	-12.3271
ville	-12.3276
▁guarda	-12.3281
▁concour	-12.3281
▁perdonar	-12.3283
▁cuida	-12.3285
▁vô	-12.329
▁instinct	-12.3291
▁augmenté	-12.3292
▁champagne	-12.3292
▁harvest	-12.3292
▁impuesto	-12.3292
▁inconnu	-12.3292
▁mantequilla	-12.3292
▁maravillosa	-12.3292
▁ridículo	-12.3292
▁éteins	-12.3292
▁minister	-12.3292
agissait	-12.3292
▁reveal	-12.3292
▁épousé	-12.3292
▁earring	-12.3292
▁ufo	-12.3292
▁stall	-12.3292
▁guapo	-12.3293
▁menú	-12.3293
▁pasajero	-12.3293
▁directeur	-12.3293
▁préférez	-12.3293
▁backward	-12.3293
▁click	-12.3293
▁fantastique	-12.3293
▁actuelle	-12.3294
▁avergonzado	-12.3294
▁liberté	-12.3294
▁boleto	-12.3295
▁privac	-12.3295
▁convencido	-12.3296
▁gritó	-12.3297
▁déclaré	-12.3297
▁aimable	-12.3297
▁echo	-12.3297
ponía	-12.3298
▁llamaste	-12.3298
▁inspiration	-12.3299
▁collapse	-12.33
▁luxur	-12.33
▁libertad	-12.3302
▁louer	-12.3302
▁significado	-12.3302
ống	-12.3305
tant	-12.3306
lógico	-12.3306
▁rota	-12.3311
▁hunger	-12.3315
▁skipp	-12.3316
▁escritor	-12.3316
▁chan	-12.332
▁opportunité	-12.3322
▁description	-12.3323
▁slipper	-12.3324
cre	-12.3325
rai	-12.3327
▁sobras	-12.3328
▁sali	-12.3329
uống	-12.3329
▁rapid	-12.333
▁attentive	-12.3331
▁solos	-12.3331
▁distinguish	-12.3335
▁español	-12.3335
▁firmar	-12.3337
▁conté	-12.334
▁acostumbrar	-12.3345
lotter	-12.3345
how	-12.3346
kia	-12.3347
▁comprender	-12.3348
▁sou	-12.3352
▁norte	-12.3355
áng	-12.3357
▁heaven	-12.3358
▁journaliste	-12.3365
screen	-12.3371
▁conclu	-12.3376
▁acabar	-12.338
▁achetée	-12.3387
▁ballon	-12.3389
▁mañanas	-12.3391
▁entendis	-12.3391
▁passa	-12.3391
▁excusa	-12.3396
▁micro	-12.3399
▁estúpida	-12.3402
▁esfuerzo	-12.3404
▁sepas	-12.3405
▁alguno	-12.3406
▁conten	-12.3408
▁biolog	-12.3409
▁union	-12.3415
▁interfere	-12.3417
▁planeta	-12.3422
▁meta	-12.3429
▁shame	-12.3432
▁chín	-12.3433
▁vache	-12.3443
▁brillant	-12.3451
▁jalouse	-12.3453
▁placer	-12.3456
▁déterminé	-12.3465
▁borde	-12.3469
▁faite	-12.3479
▁communicate	-12.3483
▁trade	-12.3483
▁appelée	-12.3485
▁convinc	-12.3485
▁pig	-12.3486
accord	-12.3488
▁injuste	-12.349
▁amélioré	-12.3491
▁réussira	-12.3497
▁soulagé	-12.3499
over	-12.35
▁wins	-12.3501
▁resume	-12.3502
▁appellerai	-12.3503
▁logr	-12.3508
accept	-12.3509
▁pudi	-12.351
▁veille	-12.3512
▁victor	-12.3529
▁propert	-12.3533
▁interven	-12.3543
▁equip	-12.3544
aiderai	-12.3547
▁freez	-12.3549
▁prohibid	-12.3551
patio	-12.3555
▁charla	-12.3555
▁médecins	-12.3557
▁refresh	-12.3559
▁adora	-12.3559
▁convertir	-12.3561
▁baloncesto	-12.3562
▁clôture	-12.3562
▁eiffel	-12.3562
▁músico	-12.3562
▁adonde	-12.3562
▁criticism	-12.3562
▁falda	-12.3562
▁poussière	-12.3562
▁météo	-12.3562
▁thrill	-12.3562
▁thumb	-12.3562
▁ilegal	-12.3562
▁esquiar	-12.3562
▁furious	-12.3562
▁métro	-12.3562
▁choisissez	-12.3562
▁vacío	-12.3562
▁carottes	-12.3562
▁sunset	-12.3562
▁viniste	-12.3563
▁supply	-12.3563
▁delicioso	-12.3564
▁rodilla	-12.3564
▁devote	-12.3565
▁cabra	-12.3566
▁traté	-12.3566
▁ancienne	-12.3567
▁niveau	-12.3568
▁consigo	-12.3568
▁querido	-12.3568
▁abattu	-12.357
allonge	-12.3574
▁flexible	-12.3575
▁leas	-12.3581
aimerais	-12.3582
▁panda	-12.3582
▁díga	-12.3585
▁survivre	-12.3585
los	-12.3592
▁chargée	-12.3592
▁trouvera	-12.3593
▁gradual	-12.3596
▁crush	-12.3598
▁hook	-12.3599
▁contrato	-12.3605
▁arrivez	-12.3606
▁móvil	-12.3608
allumer	-12.3612
▁coûter	-12.3613
▁sirve	-12.3615
▁deposit	-12.3618
▁nations	-12.362
▁loosen	-12.3622
▁ayudará	-12.3625
▁sud	-12.3626
000	-12.3628
▁chic	-12.3629
▁occuper	-12.363
▁admitir	-12.3631
▁passera	-12.3637
▁crew	-12.3639
▁consist	-12.3645
▁sw	-12.3645
▁tenter	-12.3646
▁blam	-12.3649
▁jou	-12.365
bol	-12.3651
aimez	-12.3655
▁admets	-12.3659
▁col	-12.3662
▁trago	-12.3664
▁vivai	-12.3666
▁familie	-12.3676
▁artista	-12.3679
▁apparence	-12.3679
▁nhạ	-12.3692
▁observ	-12.3694
sick	-12.3705
▁prévenue	-12.3707
▁torture	-12.3709
▁qualifie	-12.3713
lly	-12.3714
rung	-12.3714
▁huile	-12.3722
▁abus	-12.3725
▁barber	-12.3726
▁escriba	-12.3735
▁entiendes	-12.3742
▁situe	-12.3744
▁parla	-12.3746
▁quitta	-12.375
▁respecte	-12.3753
▁rubb	-12.3754
▁pointe	-12.3757
▁impidi	-12.3761
▁seguido	-12.3762
▁guardar	-12.3765
▁congratulat	-12.3767
cas	-12.3768
▁stretch	-12.377
▁mangea	-12.3771
▁tourné	-12.378
▁điể	-12.3782
▁française	-12.3785
▁ayudé	-12.379
▁réparé	-12.3791
sí	-12.3797
▁alarma	-12.3802
ras	-12.3807
▁commencez	-12.3812
▁fasten	-12.3812
▁forgiven	-12.3817
▁industr	-12.3823
▁casser	-12.3826
▁cuesti	-12.3827
▁alla	-12.3831
▁alternativa	-12.384
▁awkward	-12.384
▁estupendo	-12.384
▁female	-12.384
▁física	-12.384
▁inherit	-12.384
▁maravilloso	-12.384
▁mundial	-12.384
▁soltero	-12.384
▁suggéré	-12.384
▁sweep	-12.384
▁tuberculos	-12.384
▁automóvil	-12.384
▁mouchoir	-12.384
▁agujero	-12.384
▁typical	-12.384
▁área	-12.384
▁trigger	-12.384
▁rugby	-12.384
▁outdoor	-12.384
▁cantidad	-12.384
▁hawaii	-12.384
▁matrimonio	-12.384
▁attaqué	-12.384
▁butterfl	-12.384
▁enamorada	-12.384
▁tunnel	-12.384
▁admission	-12.384
▁tráeme	-12.384
▁patata	-12.384
▁recientemente	-12.384
▁cherchait	-12.384
▁conferencia	-12.3841
▁kilogram	-12.3841
▁reluctant	-12.3841
▁tentación	-12.3841
▁claramente	-12.3841
▁honnêteté	-12.3841
▁granja	-12.3841
▁đạp	-12.3841
what	-12.3842
▁diriez	-12.3842
▁leather	-12.3842
▁patronne	-12.3842
▁millier	-12.3843
▁boutique	-12.3843
▁supuesto	-12.3843
▁menteuse	-12.3843
▁section	-12.3843
▁contraire	-12.3843
▁ciudadano	-12.3844
▁mentionné	-12.3844
▁ongle	-12.3844
▁negotiation	-12.3844
▁acteur	-12.3845
▁hurler	-12.3845
▁obligation	-12.3845
▁branch	-12.3846
▁centaine	-12.3847
▁bœuf	-12.3847
▁regresó	-12.3848
▁assisté	-12.3848
▁sortons	-12.3848
▁étrangères	-12.385
▁commencent	-12.3854
▁fautes	-12.3855
▁mord	-12.3855
▁solv	-12.3856
▁decline	-12.3859
id	-12.386
▁sting	-12.386
▁logro	-12.386
▁trabajaba	-12.3862
▁crédito	-12.3864
▁tiró	-12.3864
▁délicieuse	-12.3865
▁cảnh	-12.3865
▁temporar	-12.3867
rôle	-12.3874
▁heater	-12.3876
▁emmene	-12.3878
▁pension	-12.3882
▁appeal	-12.3882
▁téléphoner	-12.3883
▁camarade	-12.3883
▁gris	-12.3883
▁muscle	-12.3883
▁chèque	-12.3885
▁marathon	-12.3885
illa	-12.3887
▁viaja	-12.3898
▁serv	-12.3904
▁doté	-12.3905
▁supposée	-12.3913
▁fila	-12.3914
▁billete	-12.3916
ène	-12.392
▁timid	-12.3922
▁disposes	-12.3924
▁swimmer	-12.3925
▁freeze	-12.3927
▁judg	-12.3929
▁comparé	-12.3931
▁dentista	-12.3936
▁héroe	-12.3937
▁empêché	-12.3939
▁minti	-12.3941
▁11	-12.3954
▁capables	-12.3954
▁alien	-12.3957
▁retenir	-12.3958
▁basse	-12.396
▁cable	-12.3964
▁conduce	-12.3964
▁pareil	-12.3965
▁gravement	-12.3967
▁escalera	-12.3969
homme	-12.3973
▁frie	-12.3975
▁lignes	-12.3976
▁bondé	-12.3979
▁repeated	-12.3981
arriver	-12.3983
ank	-12.3986
▁cao	-12.3986
▁signer	-12.3987
▁smooth	-12.3991
▁saltar	-12.3991
▁adopté	-12.3993
▁chain	-12.3996
rio	-12.3996
▁noire	-12.3999
▁agrade	-12.4007
woke	-12.4007
▁ignoré	-12.401
▁demandes	-12.4018
▁retardé	-12.4019
▁crey	-12.4019
▁cds	-12.4024
▁sp	-12.403
mó	-12.4031
ató	-12.4037
▁extranjeros	-12.4039
▁forcer	-12.404
▁enveloppe	-12.404
▁agotado	-12.4046
▁americano	-12.4052
▁récolte	-12.4053
▁limpi	-12.4062
▁aprende	-12.4067
va	-12.4068
lic	-12.4069
▁career	-12.4071
▁desea	-12.4073
▁suya	-12.4074
▁empêcher	-12.4076
hê	-12.4078
▁crie	-12.4086
▁prévoi	-12.409
▁doux	-12.4091
▁frank	-12.4092
arlo	-12.4094
▁bruyant	-12.4099
▁stands	-12.41
▁soñ	-12.4101
▁panic	-12.4103
▁promesas	-12.4109
▁préoccupe	-12.4109
▁mudar	-12.4111
▁professionnel	-12.4117
éter	-12.4123
▁cardiaque	-12.4126
▁fraîche	-12.4126
▁impôt	-12.4126
▁interview	-12.4126
▁ombre	-12.4126
▁opponent	-12.4126
▁ovni	-12.4126
▁plafond	-12.4126
▁traduit	-12.4126
▁equipaje	-12.4126
▁quarrel	-12.4126
▁échelle	-12.4126
▁douzaine	-12.4126
▁acceso	-12.4126
▁stabb	-12.4126
▁korea	-12.4126
▁grossière	-12.4126
▁nettoie	-12.4126
▁testigo	-12.4126
▁stomachache	-12.4126
lásti	-12.4126
▁pompier	-12.4126
▁admis	-12.4126
▁stiff	-12.4126
▁complicado	-12.4126
▁puntual	-12.4126
▁secrète	-12.4126
▁gallina	-12.4126
▁pregúntale	-12.4127
▁quotidiennement	-12.4127
▁assey	-12.4127
▁wander	-12.4127
lacks	-12.4127
▁razonable	-12.4128
▁signification	-12.4128
▁impaciente	-12.4129
chila	-12.413
▁salario	-12.4131
▁cual	-12.4133
▁moyenne	-12.4133
▁suave	-12.4135
▁débrouiller	-12.4137
▁nuevamente	-12.414
▁intense	-12.4146
tales	-12.4146
▁tension	-12.4146
▁couche	-12.4146
▁arrow	-12.4146
▁moderne	-12.4147
made	-12.415
▁acompañ	-12.4152
▁trouvent	-12.4153
▁sano	-12.4154
▁trav	-12.4154
ft	-12.4158
▁log	-12.4166
▁musicien	-12.4168
ives	-12.4168
▁bless	-12.4168
▁decía	-12.4169
▁cl	-12.4179
▁sienne	-12.4183
▁bi	-12.4183
▁alumnos	-12.4183
▁whistl	-12.4187
▁portent	-12.4189
▁struggle	-12.419
▁cre	-12.4191
▁agradecer	-12.4198
▁killing	-12.4199
huố	-12.4204
▁camper	-12.4206
▁valentin	-12.4206
▁counter	-12.4209
▁toile	-12.4212
▁rog	-12.4212
▁salv	-12.422
ton	-12.4225
▁rode	-12.4226
▁quả	-12.4228
ham	-12.4232
▁autor	-12.4236
ran	-12.4237
▁aproximada	-12.4237
lái	-12.4251
venge	-12.4253
▁pong	-12.4262
▁inflati	-12.4265
▁amical	-12.4269
▁outrage	-12.4271
▁emporté	-12.4272
▁origin	-12.4272
▁volumen	-12.4273
▁contrariée	-12.4278
uitable	-12.4279
▁transport	-12.428
▁op	-12.4283
▁regardes	-12.4283
▁actu	-12.4284
▁niñas	-12.4285
ejado	-12.4286
▁effrayée	-12.4288
ah	-12.429
▁aspirin	-12.4292
ờ	-12.4293
trait	-12.4293
▁diste	-12.4294
▁taxis	-12.4298
▁gosse	-12.4301
▁adoro	-12.4314
▁investigat	-12.432
▁ciencia	-12.4322
▁arrogant	-12.4323
▁mild	-12.4323
▁compartir	-12.4324
▁lucki	-12.4327
olencia	-12.433
▁forc	-12.4331
▁sacrifice	-12.4331
▁critica	-12.4331
▁sh	-12.4331
▁remarkabl	-12.4333
▁italia	-12.4358
▁esper	-12.436
▁explique	-12.436
▁astonish	-12.4364
▁candidate	-12.4369
▁seek	-12.4376
lancer	-12.4376
sure	-12.4376
pleasant	-12.4381
melo	-12.4385
▁examiner	-12.4385
▁descend	-12.4385
▁chargé	-12.4389
▁châ	-12.4392
▁period	-12.4399
▁reparar	-12.4403
▁repris	-12.441
▁technolog	-12.441
▁supe	-12.4411
▁digg	-12.4411
écrit	-12.4414
bell	-12.4416
▁fortuna	-12.4417
sake	-12.4418
▁antigua	-12.4418
▁práctica	-12.442
▁apariencia	-12.442
▁bathtub	-12.442
▁cautious	-12.442
▁despierta	-12.442
▁helmet	-12.442
▁réduit	-12.442
▁détonation	-12.442
▁blink	-12.442
▁caméra	-12.442
▁negra	-12.442
▁tentative	-12.442
▁marteau	-12.442
▁orphan	-12.442
▁suivez	-12.442
▁armario	-12.442
▁conséquence	-12.442
▁zero	-12.442
▁conversación	-12.442
▁bataille	-12.442
▁alcoholic	-12.442
▁linterna	-12.442
▁pensá	-12.4421
▁piqué	-12.4421
▁guante	-12.4422
▁pintó	-12.4422
▁trash	-12.4423
▁pensiez	-12.4423
▁ataque	-12.4424
▁horaire	-12.4424
▁recipe	-12.4424
▁fatigue	-12.4425
▁coal	-12.4425
staff	-12.4426
▁reward	-12.4427
▁francesa	-12.4427
▁increasing	-12.4427
▁disais	-12.4428
▁répondit	-12.4428
capacité	-12.4429
▁khóc	-12.4429
▁sailor	-12.4429
▁slave	-12.443
zart	-12.4432
▁dealing	-12.4433
▁mangeons	-12.4433
▁llevará	-12.4434
▁convenci	-12.4436
▁siga	-12.4438
▁colg	-12.4438
▁renunciar	-12.444
▁commercial	-12.4443
▁salade	-12.4448
▁esperado	-12.4449
vó	-12.445
▁iguales	-12.4451
▁central	-12.4452
jando	-12.4454
▁salida	-12.4455
▁pobla	-12.4457
▁compt	-12.4457
▁nevar	-12.4457
▁profil	-12.4458
▁enfad	-12.4459
▁prob	-12.4459
▁nadando	-12.4459
▁enemigos	-12.4459
aremos	-12.4462
▁gerente	-12.4463
▁prenai	-12.4463
▁propriétaire	-12.4468
▁việ	-12.447
▁pesca	-12.4477
▁opposé	-12.4483
▁print	-12.4485
▁dará	-12.4487
▁bore	-12.4487
▁disfruta	-12.449
▁swing	-12.4492
▁gear	-12.4493
▁achats	-12.4494
▁wage	-12.4498
▁nick	-12.4498
▁propose	-12.4498
rise	-12.4506
▁excite	-12.4512
▁intentan	-12.4513
▁menace	-12.4514
▁tracasse	-12.4515
▁coule	-12.4517
onze	-12.452
▁valid	-12.4522
▁xa	-12.4535
ici	-12.4541
▁joie	-12.4549
▁magi	-12.4551
▁étude	-12.4552
▁aisé	-12.4553
▁confiant	-12.4554
▁despedido	-12.4554
rte	-12.4557
▁dijera	-12.4563
▁pri	-12.4564
▁étoile	-12.4566
▁œuf	-12.4567
▁planta	-12.4569
▁licencié	-12.457
▁loyal	-12.4575
▁tín	-12.4589
▁poule	-12.4593
▁consume	-12.4595
▁vaches	-12.4596
▁réfléchis	-12.4597
▁rompe	-12.4602
▁ignora	-12.4604
▁heal	-12.4605
edad	-12.4606
▁danse	-12.461
▁drogue	-12.461
▁contado	-12.4617
▁consiste	-12.4621
▁inventé	-12.4627
▁chi	-12.4632
▁jupe	-12.4635
▁payée	-12.464
▁duck	-12.4642
▁demeure	-12.4643
▁diamant	-12.4644
bus	-12.4644
▁manche	-12.4652
ketch	-12.4655
▁ending	-12.4658
pa	-12.4658
▁mile	-12.4662
▁arrêtée	-12.4663
▁sienta	-12.4665
are	-12.4666
▁fle	-12.4671
▁brise	-12.4675
of	-12.4678
▁remplir	-12.4684
▁smokes	-12.4685
▁médica	-12.4705
▁partiel	-12.4715
▁expose	-12.4716
▁convirti	-12.4723
étoff	-12.4723
▁efectivo	-12.4723
▁empecé	-12.4723
▁pañuelo	-12.4723
▁pleuvait	-12.4723
▁receipt	-12.4723
▁téléphoné	-12.4723
▁apetece	-12.4723
▁coutume	-12.4723
▁scène	-12.4723
▁greek	-12.4723
▁proceed	-12.4723
▁tolerate	-12.4723
▁huyó	-12.4723
▁roommate	-12.4723
▁traduction	-12.4723
▁string	-12.4723
▁ghé	-12.4723
▁millones	-12.4723
▁journey	-12.4724
▁sordo	-12.4724
▁sneak	-12.4724
▁comiste	-12.4724
▁punch	-12.4724
▁ferez	-12.4724
▁tercer	-12.4725
▁tabac	-12.4725
▁preocupada	-12.4725
▁licencia	-12.4725
▁ressources	-12.4726
▁molesto	-12.4726
▁env	-12.4727
▁decepcionado	-12.4727
▁pesado	-12.4728
▁atrap	-12.4728
▁divorcé	-12.4729
▁treasure	-12.4729
▁verdadera	-12.473
▁humiliat	-12.4731
▁cierre	-12.4731
▁vivez	-12.4732
▁actrice	-12.4732
▁remettez	-12.4733
▁oreja	-12.4734
▁razon	-12.4734
▁escuchado	-12.4736
▁thankful	-12.4737
▁confronté	-12.4737
▁nghiệ	-12.4738
gave	-12.4739
▁jugaba	-12.4739
▁deshacer	-12.4741
▁root	-12.4745
des	-12.4746
em	-12.4746
▁whisky	-12.4752
ạn	-12.4753
▁wings	-12.4755
▁devine	-12.4757
ệ	-12.4759
▁examens	-12.476
▁juga	-12.4763
▁panick	-12.4766
▁adulte	-12.4767
▁shak	-12.477
▁ordinateurs	-12.477
▁moustique	-12.4772
▁satisfaits	-12.4777
▁actuar	-12.478
▁maîtrise	-12.478
▁compete	-12.478
hopin	-12.4784
▁motivate	-12.4788
dición	-12.4788
▁export	-12.4788
ki	-12.4791
▁comb	-12.4793
▁entrez	-12.4796
▁inviter	-12.4801
íste	-12.4802
▁tendu	-12.4803
ze	-12.4804
role	-12.4812
▁deni	-12.4817
▁vitre	-12.4817
▁auraient	-12.4819
▁frappe	-12.482
onger	-12.4826
▁rencontr	-12.4829
▁dira	-12.4837
▁respuestas	-12.4842
▁veras	-12.4844
▁kidnapp	-12.4845
▁accepte	-12.4845
enfuir	-12.4846
▁rendra	-12.4847
▁serpents	-12.4849
eme	-12.485
▁amigas	-12.4853
▁sophisti	-12.4854
vo	-12.4855
▁sucede	-12.4855
▁ga	-12.4863
▁maid	-12.4869
▁signal	-12.487
east	-12.4871
▁essaies	-12.4874
unch	-12.4877
▁prisonnier	-12.4878
▁feuille	-12.4879
▁tiết	-12.4882
▁tiên	-12.4891
▁maisons	-12.4892
▁abrí	-12.4894
▁teint	-12.49
▁voisine	-12.4908
aine	-12.4909
sept	-12.491
▁religio	-12.4913
▁divers	-12.4914
▁divorcer	-12.4917
▁revenue	-12.4918
▁volví	-12.4921
▁touriste	-12.4921
▁fa	-12.4923
▁embarrassé	-12.4924
▁intrigu	-12.4925
▁habillée	-12.4927
▁changera	-12.493
▁suggestions	-12.4931
▁entraîné	-12.4932
▁araña	-12.4935
▁bol	-12.4936
▁react	-12.4938
sions	-12.4939
▁cấ	-12.494
nicer	-12.4945
ros	-12.4945
▁criticize	-12.4947
▁voyag	-12.4948
▁brill	-12.4949
▁estudias	-12.4958
▁fuite	-12.4976
ố	-12.4979
▁pusier	-12.498
▁empire	-12.4984
▁capac	-12.4986
▁tradition	-12.4986
▁ocurre	-12.4994
▁attendrai	-12.4996
▁romp	-12.5
▁lavado	-12.5001
▁rattraper	-12.5001
algo	-12.5003
▁snore	-12.5008
▁assist	-12.5011
▁horror	-12.5017
▁señal	-12.5019
apprécie	-12.5021
▁horizon	-12.5022
▁mule	-12.5023
▁automne	-12.5025
▁sentit	-12.5029
ouvrir	-12.5029
▁impoli	-12.5031
▁étasunien	-12.5034
▁benefit	-12.5035
▁canadá	-12.5035
▁cockroach	-12.5035
▁cérémonie	-12.5035
▁diagnostiqué	-12.5035
▁frigorífico	-12.5035
▁harsh	-12.5035
▁mejilla	-12.5035
▁mystère	-12.5035
▁placard	-12.5035
▁prisionero	-12.5035
▁pétrole	-12.5035
▁railroad	-12.5035
▁scolaire	-12.5035
▁velocidad	-12.5035
▁téléviseur	-12.5035
▁seventeen	-12.5035
▁conocé	-12.5035
▁terrain	-12.5035
▁atlanti	-12.5035
▁length	-12.5035
▁definitivamente	-12.5035
▁capacité	-12.5036
▁atmospher	-12.5036
▁parecido	-12.5036
▁maternelle	-12.5036
ómetro	-12.5036
munition	-12.5036
▁fatal	-12.5036
▁domicile	-12.5037
▁cheque	-12.5037
▁hostage	-12.5037
▁réglé	-12.5037
▁basso	-12.5037
▁uña	-12.5037
▁pourraient	-12.5037
▁alemán	-12.5037
▁pirate	-12.5037
▁shampoo	-12.5038
▁vinieron	-12.5038
▁romantique	-12.5038
▁departamento	-12.5038
▁conceit	-12.5039
▁sencillo	-12.5039
▁desnudo	-12.5039
▁trempé	-12.5039
▁accountant	-12.5039
▁encendi	-12.5041
▁sabrá	-12.5041
▁cobarde	-12.5044
▁vacant	-12.5044
▁commander	-12.5045
▁fracaso	-12.5045
▁conseguí	-12.5046
▁reprises	-12.5048
adiós	-12.5049
▁sir	-12.5055
▁tira	-12.5058
▁prononcer	-12.5062
▁european	-12.5062
▁cherr	-12.5064
olina	-12.5064
▁saliera	-12.5067
▁ambas	-12.5069
▁baile	-12.5072
▁desapareci	-12.5075
▁sword	-12.5078
▁quedaba	-12.5079
▁verla	-12.5085
▁essential	-12.5085
▁serions	-12.5089
▁busca	-12.5091
▁spin	-12.5091
▁humide	-12.5091
▁rembourser	-12.5092
food	-12.5093
▁empezad	-12.5099
▁phố	-12.51
▁jetez	-12.5101
▁lips	-12.5101
allez	-12.5105
▁link	-12.5105
▁deuda	-12.5107
▁kite	-12.5107
found	-12.5108
▁manual	-12.5108
▁rêv	-12.5122
▁renversé	-12.5128
▁tocó	-12.5129
▁trate	-12.5129
▁khiế	-12.5129
▁commande	-12.5129
▁bruise	-12.5132
▁camel	-12.5132
▁publish	-12.5133
▁affamé	-12.5134
▁côte	-12.5135
▁comprendrai	-12.5136
dor	-12.5145
▁vuelv	-12.5147
▁introduc	-12.516
▁envoyée	-12.5161
chazó	-12.5163
▁causer	-12.5163
▁écrite	-12.5168
▁allemagne	-12.5171
▁insiste	-12.5171
▁privée	-12.5176
fume	-12.5176
▁fantômes	-12.518
▁tremble	-12.5184
▁rentra	-12.5186
▁pren	-12.5188
▁christian	-12.5191
▁enfadada	-12.5192
▁descendi	-12.52
▁aspecto	-12.52
▁étudies	-12.52
▁lesquel	-12.5201
▁sobrevivi	-12.5202
mo	-12.5203
▁delete	-12.5203
▁astronom	-12.5209
marrie	-12.5212
▁miré	-12.5218
▁offensé	-12.5222
▁cuidadosa	-12.5225
▁produc	-12.5229
▁believ	-12.524
▁opera	-12.5249
▁quieto	-12.5251
▁relations	-12.5253
▁mượ	-12.5253
stro	-12.5253
▁gasta	-12.5255
▁frontière	-12.526
▁curiosi	-12.5261
▁perfecta	-12.5269
▁crimes	-12.5269
▁compromis	-12.528
▁basic	-12.5281
▁croie	-12.5285
▁aguantar	-12.5286
▁parent	-12.5286
▁aleman	-12.5291
obo	-12.5292
rait	-12.5307
▁exacte	-12.5307
▁fauché	-12.5307
▁raisin	-12.5307
▁oubli	-12.5313
▁perdon	-12.5328
▁pianist	-12.5328
▁alérgic	-12.5329
las	-12.5331
▁slip	-12.5331
▁señor	-12.5331
▁allongé	-12.5335
▁consacré	-12.5341
▁skip	-12.5342
▁llevan	-12.5345
pas	-12.535
▁daba	-12.5353
▁condicion	-12.5355
▁alcalde	-12.5358
▁alfombra	-12.5358
▁ambitieux	-12.5358
▁véhicule	-12.5358
▁électrique	-12.5358
▁événement	-12.5358
▁chọn	-12.5358
▁polvo	-12.5358
▁retraso	-12.5358
▁bankrupt	-12.5358
▁covid	-12.5358
▁victoire	-12.5358
▁postcard	-12.5358
▁impresión	-12.5358
▁violín	-12.5358
▁banjo	-12.5358
▁silk	-12.5358
▁permettez	-12.5358
▁punta	-12.5359
▁afterward	-12.5359
▁écriture	-12.536
▁parvenue	-12.536
▁kiế	-12.536
▁elbow	-12.536
▁économise	-12.536
▁zorro	-12.5361
▁blâmer	-12.5361
ésped	-12.5362
▁nivel	-12.5362
▁pleurait	-12.5362
▁dorment	-12.5362
▁chủ	-12.5362
▁comic	-12.5364
▁suspicion	-12.5364
▁dudas	-12.5365
▁ressemblent	-12.5366
▁flush	-12.5366
▁flame	-12.5368
▁utilisez	-12.5368
▁emocionado	-12.5368
▁apoyo	-12.5369
▁comptez	-12.5369
▁voluntario	-12.5369
▁productive	-12.5369
▁foi	-12.537
▁déposer	-12.5371
▁disculpar	-12.5372
▁escalar	-12.5372
▁tent	-12.5373
▁environment	-12.5376
▁wow	-12.5376
▁acabas	-12.5376
▁serrure	-12.5379
▁shallow	-12.5381
▁lạnh	-12.5382
ill	-12.5382
▁rencontres	-12.5383
▁dejaría	-12.5384
▁comas	-12.5385
▁rendrait	-12.5385
▁pierde	-12.5386
▁logical	-12.5389
▁baffle	-12.5391
▁expectation	-12.5392
▁champ	-12.5394
▁robo	-12.5398
▁prepara	-12.5399
vious	-12.54
▁agi	-12.5401
▁nhờ	-12.5403
▁telescop	-12.5404
▁entraîneu	-12.5405
▁épargne	-12.5408
▁baleine	-12.541
▁verg	-12.5411
▁twist	-12.5414
▁luậ	-12.5415
▁cuente	-12.5415
▁curso	-12.5417
▁há	-12.5421
down	-12.5425
▁logra	-12.5426
▁quart	-12.5426
▁mens	-12.5427
▁admir	-12.5429
▁alert	-12.5434
sigo	-12.5435
▁cómoda	-12.5438
dire	-12.5439
▁wink	-12.5443
▁exaggerate	-12.5455
▁amusés	-12.5456
faisant	-12.5456
▁disposais	-12.546
▁combina	-12.5461
▁tareas	-12.5461
▁conversar	-12.5464
▁trouverai	-12.5465
▁physic	-12.5468
▁fermés	-12.5469
▁novelist	-12.547
▁pagado	-12.5471
▁spelling	-12.5476
▁commençai	-12.5478
▁augmenter	-12.5483
▁venía	-12.5484
▁rehus	-12.5487
▁vậ	-12.5494
▁shift	-12.5497
▁canadienses	-12.5498
▁anda	-12.5498
▁ignorant	-12.5499
▁dragg	-12.55
eau	-12.5503
▁construy	-12.5504
▁luchar	-12.5505
▁mensonges	-12.5506
▁slipp	-12.5509
▁dormai	-12.551
▁lèvres	-12.5511
saw	-12.5512
▁préparée	-12.5522
▁negotiate	-12.5522
▁embouteillage	-12.5523
unk	-12.5523
▁muchacha	-12.5526
▁chí	-12.5527
▁greed	-12.5528
▁hésite	-12.5528
▁spaghetti	-12.553
▁cuid	-12.5531
accompagner	-12.5532
▁attache	-12.5535
▁labor	-12.5535
▁ideal	-12.5538
dresser	-12.5547
▁sortis	-12.5554
▁envisager	-12.5555
▁renvoyé	-12.5558
ily	-12.5571
dix	-12.5574
▁chor	-12.5578
▁notas	-12.558
▁lazi	-12.5584
▁douz	-12.5594
▁partirai	-12.5599
▁adelanta	-12.5599
▁motion	-12.5601
▁repose	-12.5604
▁irrelevant	-12.5606
vingt	-12.5611
▁jar	-12.5614
▁emotional	-12.5615
▁adultes	-12.5618
ranh	-12.562
▁psychi	-12.5621
▁objectifs	-12.5624
▁install	-12.5627
▁pardonner	-12.5627
▁fija	-12.5632
▁necesitá	-12.5644
▁linge	-12.5644
▁essai	-12.5644
▁identi	-12.5646
▁stead	-12.5648
▁diera	-12.5651
▁gang	-12.5653
▁augmente	-12.5662
car	-12.5674
sumí	-12.5687
▁herir	-12.5687
▁suivante	-12.5688
▁sabor	-12.5689
▁impact	-12.569
▁majorit	-12.569
pé	-12.5691
▁asegúr	-12.5691
▁conozca	-12.5691
▁dolphin	-12.5691
▁espagne	-12.5691
▁margarin	-12.5691
▁modèle	-12.5691
▁muộn	-12.5691
▁plátano	-12.5691
▁poignée	-12.5691
▁électronique	-12.5691
▁kilomètre	-12.5691
▁arrepient	-12.5691
▁souffrir	-12.5691
▁embargo	-12.5691
▁pedazo	-12.5691
▁cosecha	-12.5691
▁enchanté	-12.5691
▁contient	-12.5691
▁sugiri	-12.5691
▁amarillo	-12.5691
▁publique	-12.5691
▁ému	-12.5691
▁pronunciation	-12.5692
▁classique	-12.5692
▁genuine	-12.5692
▁semblable	-12.5692
▁traitor	-12.5692
▁indoor	-12.5692
▁discutons	-12.5692
▁risqué	-12.5693
▁acusado	-12.5693
▁panier	-12.5693
▁légèrement	-12.5693
▁escena	-12.5693
▁comprenne	-12.5694
▁peaceful	-12.5694
▁energía	-12.5694
▁investment	-12.5695
▁étudiez	-12.5695
▁revenez	-12.5696
▁kiệ	-12.5696
▁personnellement	-12.5696
▁arrestado	-12.5696
▁blouse	-12.5697
▁achevé	-12.5698
ked	-12.5699
▁impressionnant	-12.5699
▁mourut	-12.57
▁nhiên	-12.57
▁hint	-12.5701
▁falso	-12.5701
▁effectue	-12.5702
▁occupie	-12.5702
▁panneau	-12.5705
▁torre	-12.5705
▁slapp	-12.5706
▁faisaient	-12.5707
▁déménager	-12.5713
▁ahorrar	-12.5715
▁alimentar	-12.5715
▁concentrar	-12.5719
▁ressembles	-12.5719
construire	-12.572
▁opina	-12.5721
▁rueda	-12.5723
▁armé	-12.5724
easy	-12.5724
▁accidental	-12.5725
▁eus	-12.5725
▁téléphonerai	-12.573
▁éloigné	-12.5731
ến	-12.5731
▁poil	-12.5734
▁salut	-12.5735
▁coast	-12.5735
▁débat	-12.5735
▁verrouillée	-12.5736
▁sûrement	-12.5743
ower	-12.5743
▁responsabilidad	-12.5744
▁angle	-12.5746
▁cubierto	-12.5747
▁viendrais	-12.5751
accorder	-12.5753
▁plaisante	-12.5756
▁quejar	-12.5757
▁dirá	-12.5762
▁résiste	-12.5763
▁gum	-12.5763
▁entregar	-12.5764
wa	-12.5764
▁modest	-12.5768
▁fe	-12.5769
▁efficient	-12.5772
▁allergies	-12.5778
▁callado	-12.5781
euros	-12.5782
tte	-12.5787
▁gustar	-12.5789
▁cae	-12.5792
▁persuad	-12.5797
▁pigeon	-12.5798
▁mover	-12.5799
▁estuvier	-12.5812
▁lancé	-12.5815
▁vayan	-12.5816
▁estadounidenses	-12.5819
▁negar	-12.582
table	-12.5822
▁outils	-12.5827
▁gay	-12.5829
ehead	-12.5831
▁bracelet	-12.5836
▁croira	-12.5837
about	-12.5839
▁selfie	-12.5843
▁experto	-12.5844
▁renunci	-12.5848
▁acheta	-12.5849
▁engañ	-12.585
▁gêné	-12.5857
▁acknowledge	-12.5859
▁abandonado	-12.5864
▁verle	-12.5867
▁océano	-12.5869
▁mow	-12.587
▁skat	-12.5872
▁medicamento	-12.5873
▁altura	-12.5875
▁aparte	-12.5876
▁fantôme	-12.5878
▁divertir	-12.5879
▁seguí	-12.589
▁intime	-12.5891
▁distrait	-12.5892
point	-12.5893
▁respir	-12.5898
▁lions	-12.5902
nte	-12.5903
▁impressionnée	-12.5904
▁ninet	-12.5913
▁escuchas	-12.5917
▁réponds	-12.5922
▁prude	-12.5923
▁pacifi	-12.5931
▁thú	-12.5934
▁terrorist	-12.5941
▁fur	-12.5942
▁souhaiter	-12.5946
▁paranoi	-12.5946
ssage	-12.5948
▁mouillé	-12.5951
▁échang	-12.5951
▁réservé	-12.5953
▁restai	-12.5954
▁flatter	-12.5955
pack	-12.5955
▁acerc	-12.5969
▁ferma	-12.5979
suelto	-12.598
améliore	-12.5987
▁choquée	-12.5988
▁cria	-12.5993
▁waiter	-12.6001
tends	-12.6009
▁ramass	-12.6009
apporter	-12.6012
▁organisé	-12.6018
▁prêterai	-12.6023
▁extend	-12.6027
▁supo	-12.6028
▁marca	-12.6032
▁villa	-12.6036
▁dismiss	-12.6036
▁catholic	-12.6036
▁colleague	-12.6036
▁despertó	-12.6036
▁espèce	-12.6036
▁helicóptero	-12.6036
▁incómodo	-12.6036
▁sceptique	-12.6036
▁secrétaire	-12.6036
▁enséñame	-12.6036
▁nerfs	-12.6036
▁pyjama	-12.6036
▁shelter	-12.6036
▁overreact	-12.6036
▁resort	-12.6036
▁disneyland	-12.6036
▁désaccord	-12.6036
▁librairie	-12.6036
▁cuisinière	-12.6036
▁zéro	-12.6036
▁fecha	-12.6036
▁fauteuil	-12.6036
▁genio	-12.6036
▁défense	-12.6036
▁relief	-12.6036
▁global	-12.6036
▁previous	-12.6037
▁grosero	-12.6037
▁marchandise	-12.6037
▁papillon	-12.6037
▁colectivo	-12.6037
▁langage	-12.6037
▁dépêchez	-12.6037
▁lớ	-12.6037
▁fax	-12.6038
▁collier	-12.6039
▁finance	-12.6039
▁méxico	-12.604
▁déterminer	-12.604
▁arrêtons	-12.604
dessous	-12.604
▁insecur	-12.604
▁crecí	-12.604
▁obligado	-12.604
▁miens	-12.6041
▁orteil	-12.6041
▁canadiens	-12.6041
▁delicate	-12.6041
▁laissons	-12.6042
▁vendré	-12.6043
▁escondido	-12.6043
▁cercana	-12.6044
▁printer	-12.6045
▁composer	-12.6048
▁mouton	-12.6049
▁infection	-12.605
▁dueño	-12.6051
▁nevando	-12.6052
▁din	-12.6057
▁afri	-12.6058
▁directo	-12.6058
▁hunter	-12.6061
▁amène	-12.6065
▁mène	-12.6066
rié	-12.6066
▁nana	-12.607
▁botas	-12.6071
▁rit	-12.6071
ajón	-12.6076
dnes	-12.6077
▁anti	-12.6081
▁traditional	-12.6083
▁laws	-12.6085
ja	-12.6086
▁principe	-12.6086
▁salon	-12.6086
▁escucho	-12.6087
▁refra	-12.6092
▁acompañar	-12.6092
▁déjeune	-12.6093
avions	-12.6095
▁disparar	-12.6095
▁quedará	-12.6095
▁poing	-12.6096
▁paye	-12.6097
choir	-12.6099
▁cansados	-12.6102
▁touchez	-12.6105
▁consomme	-12.6106
rez	-12.6116
▁débrouillé	-12.6117
▁fascinante	-12.6122
▁bak	-12.6123
▁bebido	-12.613
íbam	-12.6132
▁recuper	-12.6132
▁paierai	-12.6135
▁congratulate	-12.6135
▁drain	-12.614
▁trembl	-12.6143
▁voul	-12.6147
▁abrupt	-12.6147
darnos	-12.6153
▁quíta	-12.6154
▁flea	-12.6164
bró	-12.6165
▁sucré	-12.6166
amie	-12.6166
▁disposée	-12.6169
esta	-12.6171
▁acuerdas	-12.6173
▁blond	-12.6175
▁surprend	-12.6177
▁activité	-12.6179
▁bone	-12.618
▁cuento	-12.6182
▁sévère	-12.6183
▁puesta	-12.6187
▁trumpe	-12.6188
naire	-12.6189
▁caminan	-12.6189
▁surprenant	-12.6189
▁énigme	-12.6196
▁dettes	-12.6197
▁baila	-12.6203
▁prefieres	-12.6208
▁décisions	-12.621
▁architect	-12.6212
top	-12.6213
▁réaliser	-12.6216
▁trouverais	-12.6217
▁wis	-12.622
▁pèse	-12.6222
▁bandera	-12.6225
amiento	-12.6226
oudre	-12.6228
habituer	-12.6231
▁heurté	-12.6232
▁fâchée	-12.6232
pido	-12.6232
▁extranjera	-12.6234
▁corte	-12.6235
▁jouais	-12.6237
▁contagio	-12.6237
▁types	-12.6238
▁chiste	-12.6238
ept	-12.6239
▁harta	-12.6239
▁tristes	-12.6242
▁arriverai	-12.6246
win	-12.6247
cinq	-12.6258
mber	-12.626
▁discourage	-12.6279
▁lien	-12.6279
▁commet	-12.6282
▁technique	-12.6285
▁texte	-12.6289
▁grosses	-12.6301
▁italie	-12.6302
ías	-12.6302
▁wav	-12.6305
▁devolver	-12.6309
oupé	-12.6312
▁occurr	-12.6314
▁soupçonne	-12.6315
▁contratar	-12.6316
▁attach	-12.6329
abilidad	-12.6329
ísimo	-12.6336
▁expire	-12.6337
▁impliquée	-12.6338
▁plantas	-12.6338
▁balles	-12.6348
▁éclata	-12.6354
voient	-12.636
▁grippe	-12.6369
▁vá	-12.637
▁stream	-12.6372
▁mantén	-12.6374
▁pilote	-12.6376
▁muéstrame	-12.638
▁fourni	-12.6384
proches	-12.6386
▁lá	-12.6386
▁portuga	-12.6386
erland	-12.639
▁malheureuse	-12.639
▁estuvi	-12.6392
posición	-12.6393
▁atmosphère	-12.6393
▁bodyguard	-12.6393
▁ejército	-12.6393
▁emplettes	-12.6393
▁enciende	-12.6393
▁otoño	-12.6393
▁évidemment	-12.6393
▁gossip	-12.6393
▁attorney	-12.6393
▁juegue	-12.6393
▁gasoline	-12.6393
▁solicitud	-12.6393
▁briefcase	-12.6393
▁fût	-12.6393
▁withdraw	-12.6393
▁giận	-12.6393
▁olympic	-12.6393
▁provision	-12.6393
▁enojada	-12.6393
▁exclu	-12.6394
▁asesinado	-12.6394
▁mercado	-12.6394
▁toothache	-12.6394
▁blackmail	-12.6394
▁région	-12.6394
▁generation	-12.6394
▁escenario	-12.6394
▁loving	-12.6394
▁pistolet	-12.6394
▁parcial	-12.6395
▁désirez	-12.6396
▁thuyết	-12.6396
▁invitación	-12.6396
▁pizzas	-12.6397
▁caluroso	-12.6397
▁slamm	-12.6397
▁inévitable	-12.6397
▁tamaño	-12.6397
▁contrario	-12.6398
▁muchísimo	-12.6398
plaire	-12.6398
▁preocuparse	-12.6398
strateg	-12.6399
▁swit	-12.6399
▁maigre	-12.6399
▁podré	-12.64
▁plead	-12.64
▁stew	-12.64
▁calendar	-12.6401
▁juez	-12.6401
▁reprendre	-12.6401
▁digne	-12.6401
seas	-12.6404
▁mandar	-12.6405
▁rendent	-12.6405
▁llegaría	-12.6407
▁intentional	-12.6407
▁chiot	-12.6409
▁persuadé	-12.6411
▁brasil	-12.6412
▁interrompre	-12.6413
▁compromiso	-12.6414
ạnh	-12.6414
▁inquiét	-12.6416
▁vago	-12.642
▁habitual	-12.642
▁noyé	-12.642
▁khoản	-12.6422
▁priorit	-12.6422
▁nettoyé	-12.6424
▁fonctionnera	-12.6424
enseigner	-12.6428
▁postre	-12.6431
▁hơ	-12.6433
▁formas	-12.6433
▁acquitt	-12.6433
biste	-12.6436
▁llamaba	-12.6437
▁italian	-12.6439
worth	-12.644
▁continuar	-12.6445
▁oficial	-12.6447
▁fri	-12.645
▁piloto	-12.645
▁celular	-12.6451
▁annonce	-12.6454
▁alentours	-12.6454
▁comen	-12.6454
▁survenir	-12.6455
▁autos	-12.6459
▁dial	-12.6461
ignons	-12.6464
▁pasear	-12.6465
▁mejorar	-12.6466
proof	-12.6467
▁cabin	-12.6468
vaisselle	-12.6468
▁veiller	-12.6472
▁concentré	-12.6473
▁batalla	-12.6475
▁manten	-12.6475
▁surveiller	-12.6475
poids	-12.6476
▁giấ	-12.6477
▁trouvais	-12.6477
▁reproche	-12.6477
attendrai	-12.6481
▁quarante	-12.6484
▁dedic	-12.6484
▁activit	-12.6487
▁trataba	-12.6492
▁origine	-12.6495
oses	-12.6498
▁suicider	-12.6507
▁prudenc	-12.6513
▁asuntos	-12.6514
▁scarce	-12.6514
▁dig	-12.652
▁trich	-12.652
▁knitt	-12.6521
▁encargar	-12.6522
▁connue	-12.6523
▁postul	-12.6525
▁kil	-12.6527
▁cr	-12.6527
▁pardonné	-12.6527
▁spéciale	-12.6528
idió	-12.6529
▁patina	-12.6531
▁automatic	-12.6533
▁espérai	-12.655
▁concept	-12.6551
judge	-12.6554
ền	-12.6559
▁fuel	-12.6563
ái	-12.6573
erie	-12.6573
▁monta	-12.6574
▁drapeau	-12.6576
▁viera	-12.6578
▁saurais	-12.658
▁ocupa	-12.6583
▁détest	-12.6586
entraîne	-12.659
▁joint	-12.659
▁déprimée	-12.6599
▁quejas	-12.6601
▁hambriento	-12.6603
▁regla	-12.6604
▁difíciles	-12.6605
▁tidy	-12.661
▁lastim	-12.6613
▁sèche	-12.662
▁amenaza	-12.662
▁incapa	-12.6624
▁publishe	-12.6633
▁arregl	-12.6639
▁pile	-12.6641
▁verres	-12.6646
▁neuve	-12.6647
▁pue	-12.6648
▁viendrait	-12.665
▁hum	-12.6651
▁saisi	-12.6652
▁manques	-12.6653
▁creuse	-12.6664
ice	-12.6667
▁citizens	-12.6671
▁teme	-12.6672
ler	-12.6677
▁portée	-12.6679
▁apparu	-12.6683
▁fuese	-12.6683
pera	-12.6686
▁figur	-12.6691
▁retenu	-12.6695
▁pensa	-12.6698
altó	-12.67
▁coca	-12.6704
▁sable	-12.6712
▁guardia	-12.6714
▁inch	-12.6715
▁creen	-12.6716
▁lucha	-12.6716
▁mass	-12.6723
▁satisfactor	-12.6724
hiếu	-12.6725
▁déroulé	-12.6738
entend	-12.6738
▁wrap	-12.674
cession	-12.6741
▁presse	-12.6745
▁iras	-12.6746
▁enfrein	-12.675
▁guitarist	-12.6751
▁trouv	-12.6751
habiller	-12.6754
denes	-12.6757
▁physique	-12.676
▁obvio	-12.6763
▁artificial	-12.6764
▁california	-12.6764
▁minimum	-12.6764
▁rượu	-12.6764
▁satisfaire	-12.6764
▁signature	-12.6764
▁sonríe	-12.6764
▁barefoot	-12.6764
▁extraordinaire	-12.6764
▁refund	-12.6764
▁revolution	-12.6764
▁pesadilla	-12.6764
▁formulario	-12.6764
▁turtle	-12.6764
▁tatouage	-12.6764
▁chauffage	-12.6764
▁estudió	-12.6764
▁régulièrement	-12.6764
▁souvenez	-12.6764
▁entertain	-12.6764
▁réaction	-12.6764
▁bệnh	-12.6764
▁agenda	-12.6764
▁calidad	-12.6764
▁campana	-12.6764
▁yawn	-12.6764
▁shovel	-12.6764
▁cott	-12.6764
▁divertida	-12.6764
▁ridd	-12.6764
▁roast	-12.6764
▁aumento	-12.6764
▁spade	-12.6765
▁electricidad	-12.6765
▁réflexion	-12.6765
▁descendez	-12.6765
▁obtener	-12.6766
▁olor	-12.6766
urado	-12.6766
▁venais	-12.6766
▁candidature	-12.6766
▁tournez	-12.6766
▁pétrin	-12.6766
▁principle	-12.6767
▁déjalo	-12.6767
▁longueur	-12.6767
▁ballena	-12.6768
▁keyboard	-12.6768
▁publicité	-12.6768
▁involucrado	-12.6769
▁matado	-12.6769
▁impolite	-12.6769
▁répondez	-12.6769
▁mantiene	-12.6769
▁contradict	-12.677
imiento	-12.6771
▁semestre	-12.6772
▁breed	-12.6773
▁controlar	-12.6773
▁cười	-12.6774
▁priorité	-12.6776
hợ	-12.6777
▁bello	-12.6778
ará	-12.6778
▁averg	-12.6779
▁lung	-12.6784
▁miraba	-12.6784
ígen	-12.6787
▁riddle	-12.6788
▁dragon	-12.6789
▁wi	-12.679
▁oscura	-12.679
▁comprarlo	-12.6792
▁restons	-12.6796
▁mando	-12.6797
▁mug	-12.6801
▁jeta	-12.6804
▁escuche	-12.6805
▁gasto	-12.6805
▁politicien	-12.6806
ial	-12.6807
▁prédi	-12.6813
▁fêtes	-12.6814
▁sello	-12.6817
▁attirante	-12.6819
▁attentif	-12.6821
▁gérant	-12.6824
▁sombra	-12.6826
▁dư	-12.6828
aches	-12.683
▁déroule	-12.6832
▁experimento	-12.6833
▁expresar	-12.6834
▁âme	-12.6834
▁juzgar	-12.6835
▁cabine	-12.684
yster	-12.6844
ling	-12.6844
▁examin	-12.6844
▁asian	-12.6849
▁conduj	-12.6849
▁sàng	-12.6849
▁moqué	-12.6849
▁obedecer	-12.6852
▁bass	-12.6853
▁diamante	-12.6861
▁éclaté	-12.6863
▁comptes	-12.6864
▁tomará	-12.6869
▁arroj	-12.687
▁imbécile	-12.6874
▁burl	-12.6877
▁développe	-12.6882
▁refugee	-12.6884
▁méprise	-12.6885
ventó	-12.6886
▁porc	-12.6888
▁hacerle	-12.6895
▁endure	-12.6895
▁dés	-12.6899
fish	-12.6901
▁gane	-12.6902
▁cabo	-12.6902
piece	-12.6905
tour	-12.6905
▁désert	-12.6905
▁canal	-12.6906
tions	-12.6909
▁presentar	-12.6914
▁asthma	-12.6922
▁sonna	-12.6922
cha	-12.6927
▁superior	-12.6928
mbass	-12.6934
▁ocult	-12.6934
▁solide	-12.6934
épouser	-12.6948
▁former	-12.6953
oán	-12.6955
▁cooperati	-12.6957
▁notic	-12.6959
▁habiter	-12.6963
▁incompetent	-12.6967
▁traí	-12.6968
hy	-12.6968
▁tache	-12.6971
brado	-12.6972
approcher	-12.6973
▁solid	-12.6979
▁sentada	-12.6982
▁medida	-12.6983
▁ronfle	-12.6984
▁exten	-12.6989
▁esfuerzos	-12.699
▁bala	-12.699
▁seguía	-12.6991
▁serpent	-12.6993
emmen	-12.6993
▁rug	-12.7003
▁couché	-12.7004
▁participar	-12.7004
▁fotografías	-12.701
▁suma	-12.7011
▁climat	-12.7017
▁brazos	-12.7023
▁pigs	-12.7026
▁marchera	-12.7026
▁grenier	-12.703
▁ru	-12.7031
ri	-12.7032
▁rejeté	-12.7033
▁habitai	-12.7034
▁stare	-12.7035
rió	-12.704
▁étonné	-12.7053
▁gira	-12.7065
tâm	-12.707
▁coincée	-12.707
▁enfui	-12.7072
▁cuit	-12.7072
▁boue	-12.7076
▁étudiantes	-12.7076
▁observan	-12.7079
▁semest	-12.708
▁promett	-12.7085
▁mêle	-12.709
▁carga	-12.7094
▁ankle	-12.7096
▁trabajado	-12.7104
▁avisé	-12.7106
▁ouest	-12.711
▁laisses	-12.7111
▁paresseu	-12.7121
▁translat	-12.7125
▁wai	-12.7127
▁expense	-12.7127
▁termes	-12.713
▁sangra	-12.7131
lever	-12.7132
▁soport	-12.7132
▁étendu	-12.7135
▁pub	-12.7139
▁compliquée	-12.714
▁grè	-12.7146
▁blank	-12.7147
▁littéra	-12.7148
▁actriz	-12.7148
▁cuarenta	-12.7148
▁dégât	-12.7148
▁indispensable	-12.7148
▁límite	-12.7148
▁mahjong	-12.7148
▁mèo	-12.7148
▁pimienta	-12.7148
▁plastique	-12.7148
▁rythme	-12.7148
▁seatbelt	-12.7148
▁silencieuse	-12.7148
▁fulfill	-12.7148
▁honeymoon	-12.7148
▁koala	-12.7148
▁poète	-12.7148
▁sugier	-12.7148
▁watermelon	-12.7148
▁hokkaido	-12.7148
▁flash	-12.7148
▁étonnant	-12.7148
▁attiré	-12.7148
▁conduciendo	-12.7148
▁procedure	-12.7148
▁rational	-12.7148
▁caution	-12.7148
▁consecuencia	-12.7148
▁connaissiez	-12.7148
▁distinta	-12.7148
▁allumette	-12.7148
▁region	-12.7148
▁atrasado	-12.7149
▁revient	-12.7149
▁elecciones	-12.7149
▁kitten	-12.7149
▁download	-12.7149
troop	-12.7149
▁lyric	-12.7149
▁jumeaux	-12.7149
▁suốt	-12.7149
▁overhear	-12.7149
▁condamné	-12.7149
▁organization	-12.7149
▁almohada	-12.7149
▁electrónico	-12.7149
▁patiente	-12.7149
▁mệt	-12.715
▁pesada	-12.715
▁haunt	-12.715
▁crédule	-12.715
▁prennent	-12.7151
▁berlin	-12.7152
▁sonreír	-12.7153
▁tuesday	-12.7153
▁connait	-12.7153
▁ranch	-12.7154
▁illusion	-12.7154
▁echado	-12.7154
▁affection	-12.7155
▁ouvrier	-12.7155
▁mechanic	-12.7156
▁apprend	-12.7156
▁mineral	-12.7156
anua	-12.7157
▁déplacer	-12.7158
▁ensalada	-12.7159
▁promettre	-12.7159
▁capita	-12.716
▁mature	-12.7161
▁llaman	-12.7161
▁heads	-12.7162
▁bombero	-12.7163
▁shiver	-12.7166
ami	-12.7168
▁malet	-12.7169
▁soak	-12.7169
▁standard	-12.7169
▁servant	-12.7171
▁cora	-12.7174
▁séjourner	-12.7175
▁estimate	-12.7175
▁aboli	-12.7176
sta	-12.7177
▁poquit	-12.718
▁advertis	-12.7182
▁nier	-12.7187
▁regardai	-12.7187
▁fuente	-12.7188
▁gentils	-12.7191
iệc	-12.7196
▁lacet	-12.7196
▁viendras	-12.7201
▁crema	-12.7206
▁thả	-12.7206
▁derram	-12.7207
▁agriculture	-12.721
▁obviamente	-12.721
▁solucionar	-12.7215
▁accueilli	-12.7217
▁muerta	-12.7218
ayant	-12.7222
▁façons	-12.7227
▁nóng	-12.7228
sion	-12.7228
▁colecciona	-12.7232
▁hàn	-12.7233
▁goose	-12.7237
▁miente	-12.7238
▁quitar	-12.724
▁barre	-12.7241
▁héro	-12.7241
▁renard	-12.7245
▁obscurit	-12.7245
▁ox	-12.7246
▁pretende	-12.7247
zó	-12.7248
▁aiderai	-12.7249
mor	-12.725
▁tệ	-12.7251
▁attaché	-12.7254
▁appuye	-12.7258
▁curiosit	-12.726
▁garanti	-12.7264
urgeon	-12.7266
occuperai	-12.7267
appelait	-12.7273
▁considerado	-12.7274
▁comport	-12.7275
▁botte	-12.7278
▁proposé	-12.7278
▁détendu	-12.7279
▁postale	-12.7281
▁fum	-12.7282
écoute	-12.7283
▁hospitaliz	-12.7284
▁payment	-12.7284
▁sla	-12.7286
▁pharmacie	-12.7286
▁agradeci	-12.7286
▁ro	-12.7288
▁travaillais	-12.7291
▁gro	-12.7292
▁realit	-12.7294
▁sixt	-12.7294
▁conduirai	-12.7297
▁queja	-12.7298
▁owl	-12.7299
▁chemis	-12.7305
▁dresse	-12.7309
▁trouvons	-12.731
▁songe	-12.7316
▁compre	-12.732
▁casas	-12.7322
▁rouler	-12.7322
▁chute	-12.7327
endit	-12.7328
▁finie	-12.7331
▁écouta	-12.7333
▁perdone	-12.7333
ordre	-12.7335
▁comparti	-12.7337
▁taire	-12.7339
▁retourna	-12.7339
▁recogi	-12.734
▁critic	-12.7342
▁indian	-12.7343
▁vérifie	-12.7345
▁lạ	-12.7349
▁món	-12.7352
▁déclar	-12.7354
▁east	-12.7359
▁câlin	-12.7371
▁aula	-12.7373
▁hundi	-12.7373
▁ressent	-12.7387
▁géniale	-12.7388
▁nôtre	-12.7389
▁alcanz	-12.7389
▁hoja	-12.7391
▁séjour	-12.7392
▁traveler	-12.7393
▁hacé	-12.7395
aban	-12.7399
wood	-12.7403
pe	-12.7404
▁pressée	-12.7408
▁proverb	-12.741
iant	-12.7413
▁degré	-12.7413
doré	-12.7419
▁saute	-12.7421
▁seau	-12.7425
▁contraseña	-12.7426
améliorer	-12.7427
▁sufri	-12.7429
▁screen	-12.7429
▁saca	-12.743
▁relajar	-12.7432
▁locate	-12.7432
▁medal	-12.7436
demos	-12.7437
▁côtés	-12.7438
monnaie	-12.7442
▁atraves	-12.7442
▁killer	-12.7442
gustado	-12.7444
▁atrapar	-12.7454
▁écrasé	-12.7454
adora	-12.7454
▁pi	-12.7456
▁aprobar	-12.7456
▁mencion	-12.7469
▁parfum	-12.7469
▁marchai	-12.747
▁excitant	-12.7474
▁aube	-12.7476
errer	-12.7478
▁maths	-12.7484
fort	-12.7485
▁construir	-12.7485
▁soucier	-12.7487
ador	-12.7488
▁dépenses	-12.749
▁chub	-12.7491
▁lick	-12.7491
▁mouvement	-12.7493
▁épais	-12.7499
▁decír	-12.7499
▁vends	-12.75
▁approprié	-12.7504
▁achèterai	-12.7507
▁sip	-12.7509
rate	-12.7511
▁boite	-12.752
▁update	-12.752
estime	-12.7521
ille	-12.7523
▁spina	-12.7523
▁cumpli	-12.7529
▁saque	-12.753
▁confront	-12.7531
▁douloureu	-12.7532
▁porta	-12.7532
▁rayo	-12.7533
▁pluma	-12.7534
▁anticipate	-12.7535
▁parlerai	-12.7535
▁moquer	-12.7541
▁exagér	-12.7541
▁exécut	-12.7542
▁llegara	-12.7544
▁permanent	-12.7545
▁reflect	-12.7546
▁spirit	-12.7546
▁cuéntame	-12.7547
▁végétarien	-12.7547
▁juntar	-12.7547
▁grano	-12.7547
▁appéti	-12.7548
▁devastat	-12.7548
▁baignoire	-12.7548
▁cafard	-12.7548
▁continúa	-12.7548
▁craindre	-12.7548
▁différemment	-12.7548
▁faucet	-12.7548
▁financière	-12.7548
▁folk	-12.7548
▁hypothèse	-12.7548
▁immature	-12.7548
▁invincible	-12.7548
▁líder	-12.7548
▁mammal	-12.7548
▁poitrine	-12.7548
▁secundaria	-12.7548
▁siècle	-12.7548
▁trabajé	-12.7548
▁angleterre	-12.7548
▁duermo	-12.7548
▁reçoi	-12.7548
▁shoelace	-12.7548
▁galerie	-12.7548
▁grotte	-12.7548
▁adecuado	-12.7548
▁renew	-12.7548
táculo	-12.7548
▁tontería	-12.7548
▁carpenter	-12.7548
▁malchanceux	-12.7548
▁zona	-12.7548
▁conceal	-12.7548
▁millionnaire	-12.7548
▁remarquable	-12.7548
▁phạ	-12.7548
▁accompagné	-12.7548
▁gasolina	-12.7548
▁autorité	-12.7549
▁evidencia	-12.7549
▁plumber	-12.7549
▁commerce	-12.7549
▁mojado	-12.7549
presión	-12.7549
▁nephew	-12.7549
▁hésitez	-12.7549
▁scrap	-12.7549
▁utilité	-12.7549
▁aboyer	-12.7549
▁plug	-12.755
▁verify	-12.755
▁quittez	-12.755
▁trial	-12.7551
▁invisible	-12.7551
▁pálid	-12.7551
▁barbecue	-12.7551
▁peleando	-12.7551
▁militar	-12.7553
▁confundido	-12.7554
▁gu	-12.7554
▁coser	-12.7555
▁giggl	-12.7555
▁attribute	-12.7557
▁insecte	-12.7557
▁generalmente	-12.7558
▁zanahorias	-12.7558
▁reconnue	-12.7559
▁volvería	-12.7559
▁brace	-12.756
▁personalmente	-12.7561
metido	-12.7564
▁babbl	-12.7566
▁coudre	-12.7566
▁oreiller	-12.7566
▁normale	-12.7568
▁babi	-12.7568
▁ignorez	-12.7568
▁collectionne	-12.7569
▁aparcar	-12.7569
▁industrie	-12.757
▁consacrer	-12.757
▁odiaba	-12.7572
▁plante	-12.7572
▁photographer	-12.7573
▁utilizar	-12.7573
▁bourré	-12.7574
▁cambie	-12.7574
▁prévoit	-12.7576
▁décè	-12.7577
▁rappellerai	-12.7579
▁calmes	-12.758
▁eche	-12.7582
▁quote	-12.7582
▁compart	-12.7583
▁sonrien	-12.7586
▁decirlo	-12.7588
▁bury	-12.7589
▁adivina	-12.759
▁mentido	-12.7593
datos	-12.7597
▁gulli	-12.7599
▁decorat	-12.7599
cciones	-12.7601
▁traversa	-12.7602
▁polie	-12.761
▁boucle	-12.7612
▁stroke	-12.7613
▁prises	-12.7614
▁qualifié	-12.7614
name	-12.7616
▁elegido	-12.7616
▁modelo	-12.7623
tor	-12.7625
▁trat	-12.763
▁communit	-12.763
▁scale	-12.7631
▁ouvertes	-12.7632
garderai	-12.7632
▁éléphants	-12.7637
▁adventure	-12.764
▁fry	-12.7643
▁commences	-12.7647
▁cease	-12.7647
▁essaierai	-12.7648
para	-12.766
▁embarrassant	-12.7662
▁alimentos	-12.7664
▁viaj	-12.7664
▁carnet	-12.7666
▁maître	-12.767
chant	-12.767
▁creés	-12.7671
▁chinoise	-12.7674
▁baker	-12.7675
▁tenta	-12.7676
▁pusi	-12.7676
▁pari	-12.7678
▁confuso	-12.7679
▁arrogante	-12.7682
▁fierce	-12.7683
▁repetir	-12.7687
▁sung	-12.7693
▁esquí	-12.7701
▁tiendra	-12.7701
▁muro	-12.7703
▁consum	-12.7713
▁clientes	-12.7715
▁permet	-12.7723
▁fusil	-12.7724
▁promi	-12.7725
▁averti	-12.7727
▁chistes	-12.7729
▁labio	-12.7734
▁amend	-12.7737
▁sigues	-12.7739
▁mordi	-12.7741
▁nue	-12.7742
▁réussit	-12.7742
▁penn	-12.7742
▁têtu	-12.7747
▁divid	-12.7751
▁karat	-12.7767
▁adieu	-12.7767
▁emmène	-12.7774
▁lance	-12.7778
▁policem	-12.7778
▁travaillai	-12.7786
ejó	-12.7787
▁liquid	-12.7787
▁disco	-12.7789
▁voudr	-12.7789
sito	-12.7795
▁dim	-12.7795
▁emmené	-12.7796
▁enterré	-12.7797
▁luxe	-12.7798
▁manuel	-12.78
▁fourchette	-12.7801
▁flic	-12.7802
▁plaisanterie	-12.7805
▁aînée	-12.7805
▁pila	-12.7805
▁marque	-12.7806
▁estadounidense	-12.7807
▁inspire	-12.781
▁resulta	-12.7811
▁represent	-12.7811
▁applaudi	-12.7816
▁ayudaría	-12.7818
▁kiể	-12.782
▁suceder	-12.782
▁spit	-12.782
urs	-12.7824
▁adolescente	-12.783
▁baigne	-12.7832
▁trabajas	-12.7834
▁levée	-12.7836
ales	-12.7843
▁distant	-12.7845
▁gaspill	-12.785
▁seco	-12.7857
▁convers	-12.7864
▁ricos	-12.7866
▁lid	-12.7868
▁cura	-12.7868
▁équip	-12.7873
▁fiction	-12.7875
▁venait	-12.7876
▁reproduira	-12.7884
▁lento	-12.7887
▁surveille	-12.7891
▁allumée	-12.7898
▁craint	-12.7905
enfui	-12.7907
excuse	-12.7914
anque	-12.792
▁llegas	-12.7921
▁garée	-12.7922
▁operate	-12.7923
▁decidier	-12.7928
▁impos	-12.7929
▁monument	-12.7931
▁appréci	-12.7932
▁clou	-12.7933
▁nấ	-12.7933
title	-12.7934
▁affecte	-12.7937
▁shell	-12.7938
espère	-12.794
▁favori	-12.7941
▁absorbe	-12.7943
▁individual	-12.7945
▁jugue	-12.7947
ita	-12.7948
ouffer	-12.7954
▁menacé	-12.7956
▁numb	-12.7958
▁crow	-12.7958
▁survivant	-12.7961
specific	-12.7962
▁convict	-12.7964
▁apparemment	-12.7965
▁chaîne	-12.7965
▁disobey	-12.7965
▁establish	-12.7965
▁garganta	-12.7965
▁kanji	-12.7965
▁orthographe	-12.7965
▁pneumoni	-12.7965
▁prospect	-12.7965
▁sample	-12.7965
▁profesional	-12.7965
▁zumo	-12.7965
▁économique	-12.7965
▁trái	-12.7965
▁context	-12.7965
▁unbearabl	-12.7965
▁mutuamente	-12.7965
▁omelet	-12.7965
▁vocation	-12.7965
▁enterrement	-12.7965
▁siéntate	-12.7965
▁partenaire	-12.7965
▁chopstick	-12.7965
▁ciervo	-12.7965
▁ventaja	-12.7965
▁emotion	-12.7966
▁pouvaient	-12.7966
▁bienvenida	-12.7966
▁privado	-12.7966
▁translator	-12.7966
▁preferida	-12.7966
▁aliento	-12.7966
▁bride	-12.7966
▁ministre	-12.7966
▁mouche	-12.7966
▁chanteuse	-12.7966
▁valable	-12.7966
▁ambulancia	-12.7966
▁volont	-12.7966
▁envoyez	-12.7967
▁crevé	-12.7967
▁alquiler	-12.7967
▁embarazada	-12.7967
▁reporté	-12.7967
▁partagé	-12.7968
▁creas	-12.7968
▁afortunadamente	-12.7969
▁resolvi	-12.7969
▁extraterrestres	-12.7969
▁masque	-12.7969
▁extinguish	-12.7969
▁costará	-12.7969
offrir	-12.797
▁uvas	-12.797
▁rendiez	-12.797
ojos	-12.797
▁asesino	-12.797
▁serveur	-12.7971
▁august	-12.7971
▁childish	-12.7971
▁cocinando	-12.7972
▁liệ	-12.7973
▁dejaste	-12.7974
▁conocerte	-12.7975
▁inconsciente	-12.7975
▁effectué	-12.7975
▁superar	-12.7976
▁rendons	-12.7978
▁pierda	-12.7978
▁referr	-12.798
▁carol	-12.7983
▁atterri	-12.7983
▁hypocrite	-12.7983
▁coûtent	-12.7984
▁pus	-12.7984
▁respeta	-12.7985
tive	-12.7985
▁mérité	-12.7986
▁sát	-12.7987
▁dread	-12.7987
york	-12.7988
▁tù	-12.7988
servez	-12.7989
▁formal	-12.7992
▁reprocher	-12.7993
▁oírte	-12.7994
▁perde	-12.7994
▁leap	-12.7996
▁shortage	-12.7996
▁muere	-12.7997
▁meurent	-12.7998
▁passons	-12.7999
pitié	-12.8
▁émission	-12.8003
▁discut	-12.8007
▁hopeful	-12.8008
rompre	-12.801
▁sympath	-12.8013
hật	-12.8014
▁ayudarlo	-12.8014
▁cendre	-12.8015
▁babysitt	-12.8015
▁crown	-12.8017
▁testament	-12.8017
▁vomit	-12.8019
▁mélange	-12.802
▁ventre	-12.8021
▁sorprende	-12.8022
ây	-12.8025
▁courtes	-12.8027
▁cubo	-12.8028
aides	-12.8029
▁rais	-12.8031
▁alma	-12.8031
▁đù	-12.8035
▁mandó	-12.804
▁nerviosa	-12.8046
▁tinto	-12.8051
▁fermées	-12.8057
▁paresse	-12.8073
ición	-12.8073
▁appli	-12.8077
▁dernièrement	-12.808
▁peach	-12.8085
siete	-12.8086
▁costa	-12.8092
penal	-12.8094
▁estacionar	-12.8095
▁incidente	-12.8099
▁organ	-12.81
▁tube	-12.8102
▁apoy	-12.8102
▁cooperate	-12.8105
▁tigres	-12.8105
▁calmer	-12.8106
▁curse	-12.8106
▁pid	-12.811
▁propios	-12.8112
▁entraîne	-12.812
▁usado	-12.8121
▁comprenai	-12.8122
▁révéla	-12.8125
▁insecto	-12.8125
▁pinch	-12.8127
▁pourras	-12.8128
▁tranquila	-12.813
▁needle	-12.8133
▁pago	-12.8133
▁acostumbrad	-12.8134
▁curr	-12.8134
▁posee	-12.8135
▁découvre	-12.8136
▁soucis	-12.8138
▁pear	-12.8139
creció	-12.814
▁humain	-12.8141
▁đán	-12.8152
els	-12.8155
▁accompagner	-12.816
medio	-12.8163
▁runner	-12.8164
àng	-12.8165
let	-12.8167
▁assuré	-12.817
▁amar	-12.8171
attle	-12.8172
▁appela	-12.8172
taient	-12.818
▁deviendra	-12.8184
▁élégant	-12.8185
▁identif	-12.8188
nié	-12.8189
▁senté	-12.8196
▁confes	-12.8201
▁tapa	-12.8202
eath	-12.8203
▁sill	-12.8211
▁dotée	-12.8211
▁curieuse	-12.8213
▁ruine	-12.8215
cédé	-12.8215
justement	-12.8219
▁aidera	-12.8225
▁délai	-12.8226
▁scandal	-12.8227
▁ponctuel	-12.8228
▁conservati	-12.8229
▁pronuncia	-12.8232
▁lover	-12.8233
▁chauve	-12.8234
hi	-12.8239
▁abeille	-12.8239
▁político	-12.824
▁partner	-12.8241
▁absente	-12.8242
▁dépasse	-12.8243
▁ancho	-12.8259
▁bilingu	-12.8259
▁passerai	-12.8259
▁entouré	-12.826
▁dejad	-12.8271
▁américaine	-12.8277
▁ordonné	-12.8277
▁aguant	-12.8278
tanic	-12.828
▁regrett	-12.8281
fe	-12.8292
▁gree	-12.8292
▁excusé	-12.8292
▁suced	-12.8297
▁tâches	-12.83
▁champion	-12.8304
▁espec	-12.8308
▁breast	-12.831
▁industrial	-12.8311
▁pican	-12.8311
▁nav	-12.8314
aiment	-12.8327
▁souvien	-12.8327
▁permanecer	-12.8332
▁espion	-12.8333
▁regres	-12.8335
▁dejas	-12.8341
adresse	-12.8341
▁échouer	-12.8344
▁ríe	-12.8344
▁requis	-12.8348
▁fines	-12.8352
kind	-12.8358
▁instruc	-12.8358
▁tick	-12.8359
▁imm	-12.8362
▁prom	-12.8362
▁corrí	-12.8366
▁gut	-12.8367
hiều	-12.837
▁merc	-12.837
▁philosoph	-12.8373
▁changea	-12.8374
cast	-12.8381
▁soign	-12.8382
▁répare	-12.8383
▁payés	-12.8387
endrier	-12.8387
▁irresponsib	-12.8388
ượ	-12.8392
▁declin	-12.8395
▁chèvre	-12.84
▁collègue	-12.84
▁desierto	-12.84
▁diplôme	-12.84
▁francisco	-12.84
▁irresponsable	-12.84
▁martillo	-12.84
▁método	-12.84
▁potential	-12.84
▁refrigerado	-12.84
▁tequila	-12.84
▁época	-12.84
▁apprenti	-12.84
▁channel	-12.84
▁environnement	-12.84
▁instituto	-12.84
▁ocasión	-12.84
▁propriété	-12.84
▁advienne	-12.84
▁étape	-12.84
▁décevoir	-12.84
▁shark	-12.84
▁calvo	-12.84
▁sixteen	-12.84
▁appuyé	-12.84
▁éteignez	-12.84
▁frecuentemente	-12.84
▁repentinamente	-12.84
▁maintain	-12.84
▁microphone	-12.84
▁gorda	-12.84
▁balloon	-12.84
▁investigación	-12.84
▁lujo	-12.84
▁creature	-12.84
▁otage	-12.84
▁grocer	-12.84
▁khả	-12.8401
▁pearl	-12.8401
▁brièvement	-12.8401
▁siffler	-12.8401
▁libéré	-12.8401
▁overlook	-12.8402
▁dibujo	-12.8402
▁égaré	-12.8402
▁impresionado	-12.8402
▁recommencer	-12.8402
▁trabajan	-12.8403
▁errand	-12.8403
▁retournez	-12.8403
▁rảnh	-12.8403
▁venture	-12.8404
▁prétendu	-12.8404
▁soulevé	-12.8404
▁typhon	-12.8405
▁deliciosa	-12.8405
▁ingreso	-12.8405
▁montez	-12.8406
▁caminaba	-12.8406
▁couvre	-12.8406
▁annoncé	-12.8406
▁frappée	-12.8406
▁chì	-12.8406
▁despertador	-12.8407
▁retirez	-12.8408
▁astronaut	-12.8409
ida	-12.841
▁youth	-12.8412
▁domaine	-12.8412
ché	-12.8417
iation	-12.8418
▁disposent	-12.8418
▁ponerlo	-12.8419
▁sensation	-12.842
auriez	-12.8421
▁finit	-12.8421
▁hablaste	-12.8421
▁exc	-12.8424
▁leerlo	-12.8428
▁feo	-12.8429
▁mentez	-12.843
▁épaisse	-12.8432
▁fr	-12.8434
▁procurer	-12.8435
▁dejarlo	-12.8436
▁commencement	-12.8437
▁toast	-12.8438
▁ahorro	-12.8438
ut	-12.8441
▁appréciai	-12.8442
▁fuertes	-12.8447
▁souviendra	-12.8447
▁mustache	-12.8452
▁carton	-12.8452
▁pav	-12.8454
eando	-12.8456
▁mesures	-12.8457
▁device	-12.8457
▁fondu	-12.8458
vaudrai	-12.8459
▁récente	-12.8459
▁disfraz	-12.846
▁cero	-12.8464
case	-12.8466
▁tighten	-12.8467
▁éprouve	-12.8469
illo	-12.8469
▁subscribe	-12.847
▁grenouille	-12.847
▁reli	-12.8473
asco	-12.8473
▁cro	-12.8474
▁normalement	-12.8474
▁equivoca	-12.848
▁traiga	-12.848
▁materna	-12.8482
health	-12.8484
▁passent	-12.8488
▁hagámo	-12.8488
▁sonner	-12.849
rie	-12.849
▁ray	-12.8496
hông	-12.85
▁preciosa	-12.8503
ors	-12.8504
▁statement	-12.8507
quatre	-12.8509
▁autrefois	-12.8509
▁chôm	-12.8512
▁pasaba	-12.8514
attendez	-12.8518
▁assemble	-12.8519
▁cruce	-12.8523
▁elige	-12.8523
▁exhausto	-12.8525
▁worm	-12.8529
▁nourri	-12.8529
▁bê	-12.853
commande	-12.8531
▁cigarrillos	-12.8532
▁croisé	-12.8533
▁arrivait	-12.8533
▁mono	-12.8535
▁mandat	-12.8542
▁entretien	-12.8545
▁tarda	-12.8545
ería	-12.8545
▁miracles	-12.8554
▁tham	-12.8556
ground	-12.8558
▁humanit	-12.8558
issiez	-12.8559
▁confund	-12.8561
▁hierba	-12.8562
▁lap	-12.8564
▁vano	-12.8565
conocí	-12.8572
▁arc	-12.8573
pt	-12.8578
▁bach	-12.8578
▁ór	-12.8579
▁accusing	-12.8582
▁regardais	-12.8587
▁perdona	-12.859
▁supérieur	-12.8598
▁attendant	-12.8599
▁starve	-12.8601
▁responded	-12.8614
mp	-12.8615
▁sentados	-12.8619
ney	-12.8621
▁poursuivr	-12.8622
oso	-12.8624
▁sauta	-12.8627
▁shine	-12.8638
ex	-12.8639
▁dangereuse	-12.864
▁coul	-12.8646
▁engañar	-12.8647
▁sauvée	-12.8647
▁cel	-12.865
▁saisir	-12.865
▁000	-12.8651
▁cochon	-12.8651
dense	-12.8658
vis	-12.8663
▁fixe	-12.8667
ợ	-12.8668
▁mill	-12.867
▁légal	-12.8674
▁advirti	-12.868
▁embrassée	-12.869
▁traduis	-12.8692
▁acuerda	-12.8696
▁seal	-12.8696
▁racist	-12.8698
▁abandonne	-12.8701
▁avoue	-12.8702
▁donnes	-12.8703
▁reported	-12.8705
▁barba	-12.8707
▁cometa	-12.8708
▁dama	-12.8709
▁déc	-12.8712
▁cycl	-12.8713
▁tiende	-12.8715
▁essayerai	-12.8716
▁ah	-12.8718
▁disque	-12.8725
▁crut	-12.8726
ác	-12.8726
▁cliente	-12.8729
▁dépourvue	-12.873
ches	-12.8732
▁hospitalit	-12.8734
▁considera	-12.8738
nlight	-12.874
▁copa	-12.8744
▁verge	-12.8744
▁inquiets	-12.8745
anish	-12.8751
▁utiliza	-12.8753
▁prima	-12.8763
▁muchachos	-12.8765
▁humid	-12.8772
▁atenta	-12.8773
▁giế	-12.8774
▁réel	-12.8779
▁cible	-12.8784
▁aidée	-12.8787
▁bebí	-12.8788
▁verrouillé	-12.8795
rote	-12.8796
▁includ	-12.8799
▁colum	-12.8802
▁verse	-12.8808
▁éveillée	-12.8823
▁accro	-12.8823
▁essentiel	-12.8828
▁aida	-12.8829
▁sérieuses	-12.8831
▁abduc	-12.8831
tón	-12.8835
voir	-12.8835
▁agis	-12.8836
▁ngu	-12.8838
embête	-12.8838
▁izquierd	-12.8838
▁phú	-12.8842
▁blog	-12.8846
▁mises	-12.8847
▁stir	-12.8848
issent	-12.8848
▁rebel	-12.8848
▁appoint	-12.8851
lung	-12.8853
▁maux	-12.8854
▁democrac	-12.8854
▁estupenda	-12.8854
▁abasourdi	-12.8854
▁avril	-12.8854
▁catastrophe	-12.8854
▁cuaderno	-12.8854
▁enceinte	-12.8854
▁estudié	-12.8854
▁execute	-12.8854
▁furioso	-12.8854
▁inappropriate	-12.8854
▁indiqué	-12.8854
▁meurtrier	-12.8854
▁nucléaire	-12.8854
▁thursday	-12.8854
▁téléphonique	-12.8854
▁voluntad	-12.8854
▁écureuil	-12.8854
▁cambrioleur	-12.8854
▁chapter	-12.8854
▁loại	-12.8854
▁malentendido	-12.8854
offensive	-12.8854
▁egoísta	-12.8854
▁footprint	-12.8854
▁migraine	-12.8854
odorant	-12.8854
▁fingernail	-12.8854
▁necessit	-12.8854
▁inquiétude	-12.8854
▁explosión	-12.8854
▁butcher	-12.8854
▁personnalité	-12.8854
▁mettons	-12.8854
▁empiece	-12.8854
▁salmon	-12.8854
▁métier	-12.8854
▁apellido	-12.8855
▁autoridad	-12.8855
▁dossier	-12.8855
▁obsequio	-12.8855
▁cuyo	-12.8855
▁estantería	-12.8855
▁valait	-12.8855
▁largué	-12.8855
▁thơ	-12.8855
▁commission	-12.8856
▁dejá	-12.8856
▁demostrar	-12.8856
▁comercial	-12.8856
▁terminaste	-12.8856
▁approximate	-12.8857
▁rideau	-12.8857
▁deprimido	-12.8857
▁raquette	-12.8857
▁pasta	-12.8857
▁undress	-12.8858
▁courageuse	-12.8858
▁cuisin	-12.8859
▁regrese	-12.8859
▁cicatrice	-12.8859
▁sanguin	-12.8859
▁dépit	-12.886
▁steps	-12.886
▁inocen	-12.886
▁archivo	-12.886
▁empezamos	-12.8861
▁volcano	-12.8862
▁niece	-12.8863
aidera	-12.8864
▁occasional	-12.8864
location	-12.8864
▁dérobé	-12.8865
▁educado	-12.8865
▁coulé	-12.8866
▁hiể	-12.8867
▁saqué	-12.8868
▁hong	-12.8868
eusement	-12.8868
▁entendería	-12.8869
▁stad	-12.8869
▁forbidd	-12.887
▁gal	-12.8871
▁organiser	-12.8871
▁durará	-12.8871
▁verrouiller	-12.8871
▁casarme	-12.8873
▁phút	-12.8873
▁abril	-12.8873
▁accomplice	-12.8874
▁vomir	-12.8874
▁venid	-12.8878
▁lança	-12.8878
▁paysage	-12.8879
▁acorde	-12.8879
ughter	-12.888
▁épou	-12.888
▁visiteurs	-12.8882
piter	-12.8882
▁immigra	-12.8882
▁nécessaires	-12.8882
▁león	-12.8884
▁bande	-12.8887
▁capacidades	-12.8887
ates	-12.8888
rrón	-12.889
▁perdant	-12.8891
▁trescient	-12.8895
▁symptômes	-12.8895
▁envoie	-12.8895
▁aburrid	-12.8899
▁universo	-12.8899
▁remarquer	-12.8901
▁snor	-12.8903
▁cello	-12.8903
▁manag	-12.8906
▁wit	-12.891
▁heroin	-12.8913
▁traduj	-12.8917
▁faille	-12.8917
▁fist	-12.8918
▁dette	-12.892
▁tóma	-12.8924
▁khuy	-12.8926
▁seca	-12.8927
▁acondicionado	-12.8927
▁avertissement	-12.8929
▁juin	-12.8929
▁tranquilles	-12.893
cted	-12.8931
▁reunir	-12.8932
▁demanderai	-12.8933
▁resultar	-12.8934
ique	-12.8942
▁dinosaur	-12.8943
▁expedi	-12.8944
▁constitution	-12.8944
▁fraises	-12.8946
▁khí	-12.8947
hand	-12.8948
▁cuentas	-12.8948
por	-12.8953
▁déclara	-12.8954
▁alter	-12.8954
embêter	-12.8955
▁mérit	-12.8959
ix	-12.8961
rève	-12.8964
▁améliorer	-12.8964
▁mango	-12.8969
▁pása	-12.8969
▁tank	-12.8973
▁psychologi	-12.8982
▁encantador	-12.8983
▁photographie	-12.8994
▁trait	-12.8995
▁sociale	-12.8996
école	-12.8998
curable	-12.9002
▁exhale	-12.9006
▁!"	-12.9008
▁enlève	-12.9011
itas	-12.9013
▁chips	-12.9021
▁lanz	-12.9022
▁mires	-12.9023
▁actif	-12.9024
▁firma	-12.903
▁optimista	-12.9039
éance	-12.9041
aucun	-12.9041
▁maîtres	-12.9042
▁objeto	-12.9047
▁andaba	-12.9048
▁mezcla	-12.9049
▁banca	-12.9052
▁natal	-12.9055
▁débutant	-12.906
▁potable	-12.9063
▁cocin	-12.9064
implique	-12.9065
▁appuie	-12.9067
▁inspir	-12.9069
▁horari	-12.9071
fall	-12.9072
▁billion	-12.9073
▁lograr	-12.9078
▁cachet	-12.9078
▁réside	-12.908
▁cepill	-12.9084
uté	-12.9085
▁deliberate	-12.9087
▁sobrevivir	-12.9094
approche	-12.9099
▁financier	-12.9101
storm	-12.9102
▁séché	-12.9102
▁rencontra	-12.9103
ttent	-12.9104
cked	-12.9104
▁embauché	-12.9117
▁passion	-12.912
▁idéal	-12.9123
▁rempliss	-12.9126
oulever	-12.9128
▁phí	-12.9129
▁manda	-12.9129
▁nat	-12.9133
▁organisée	-12.9134
▁chuck	-12.9134
▁inspect	-12.9136
▁accordé	-12.9137
▁soutiens	-12.9138
▁consent	-12.9139
▁llevara	-12.9142
▁adorera	-12.9146
ear	-12.9147
▁evit	-12.9147
vions	-12.9151
▁indica	-12.9152
▁criminel	-12.9155
▁vení	-12.9156
▁tromb	-12.9158
▁estacion	-12.9162
▁dorm	-12.9163
▁ngạ	-12.9165
▁flipp	-12.9166
▁miennes	-12.9171
▁tigre	-12.9172
minded	-12.9174
▁convencerl	-12.9175
▁puissant	-12.9176
▁recomend	-12.9176
▁utter	-12.9178
▁llegues	-12.9181
▁prononc	-12.9181
▁acquire	-12.9183
▁pur	-12.9184
▁caído	-12.9186
▁préoccupé	-12.9189
▁cambié	-12.9191
▁ingredient	-12.9193
▁découverte	-12.9194
▁trahie	-12.9198
▁contribu	-12.92
▁expliqua	-12.9204
▁tinta	-12.9205
▁prefiere	-12.9205
▁persistent	-12.9206
▁effrayant	-12.9206
▁amas	-12.9208
▁pasaste	-12.9208
▁majeur	-12.921
▁suicidé	-12.9215
▁fir	-12.9216
▁alimenta	-12.9226
▁tuviste	-12.9226
▁aperçu	-12.9228
▁envisage	-12.9229
▁charmant	-12.9231
▁tomb	-12.9232
entation	-12.9232
▁physici	-12.9232
reasonabl	-12.9237
▁tempora	-12.9245
▁quantit	-12.9247
▁psycholog	-12.9255
▁transporte	-12.9257
▁severa	-12.926
nob	-12.926
▁entendí	-12.9261
▁tint	-12.9263
▁profiter	-12.9264
▁reporte	-12.9264
antes	-12.9266
▁populat	-12.927
▁admiro	-12.9274
▁hà	-12.9277
▁oublia	-12.9281
▁poèmes	-12.9283
▁terror	-12.9285
▁écoutai	-12.9286
▁durar	-12.929
pendent	-12.929
▁mignons	-12.9302
▁astrolog	-12.9302
▁permitid	-12.9303
▁pourra	-12.9304
probado	-12.9304
▁murs	-12.9305
ustache	-12.9307
traîner	-12.931
▁decepcionar	-12.9316
▁prouve	-12.9316
▁sirvi	-12.9318
▁regalar	-12.9319
▁alegre	-12.9319
▁clara	-12.932
▁permiti	-12.9321
▁blancs	-12.9323
ccès	-12.9323
▁formé	-12.9324
▁aquél	-12.9327
▁légère	-12.9327
▁sneeze	-12.9328
▁rápida	-12.9329
▁hilar	-12.9329
▁febr	-12.933
▁necesaria	-12.933
▁bacteria	-12.933
▁camiseta	-12.933
▁cependant	-12.933
▁enthousiasm	-12.933
▁excursion	-12.933
▁hélicoptère	-12.933
▁milagro	-12.933
▁parallel	-12.933
▁vecindario	-12.933
▁vencido	-12.933
▁ansioso	-12.933
▁bulb	-12.933
▁enormous	-12.933
▁despedida	-12.933
▁athlete	-12.933
▁cabane	-12.933
▁promène	-12.933
▁parrot	-12.933
▁balcon	-12.933
▁jaula	-12.933
▁además	-12.933
▁advenu	-12.933
▁distinto	-12.933
▁thunder	-12.933
▁temporaire	-12.9331
▁periodista	-12.9331
▁ingénieur	-12.9331
▁parliez	-12.9331
▁waitress	-12.9331
▁compétition	-12.9331
▁phim	-12.9331
▁batería	-12.9331
▁melodía	-12.9331
▁disposition	-12.9331
▁cerf	-12.9331
▁pudiste	-12.9331
▁associate	-12.9332
▁oigo	-12.9332
▁bonbon	-12.9332
▁pizarra	-12.9332
▁widow	-12.9332
▁weakness	-12.9332
▁pintor	-12.9332
▁phare	-12.9332
▁restroom	-12.9333
▁pacifique	-12.9333
arnos	-12.9333
▁perdiste	-12.9333
▁hoạ	-12.9333
▁oveja	-12.9333
▁apretó	-12.9333
▁reducir	-12.9334
▁huelg	-12.9334
▁farine	-12.9334
▁amusez	-12.9334
▁preparada	-12.9336
▁rideaux	-12.9336
▁inhabit	-12.9336
▁tocaba	-12.9336
▁atroce	-12.9336
▁barata	-12.9336
▁ramène	-12.9337
▁lâchez	-12.9337
▁enfermé	-12.9337
▁paresseuse	-12.9338
▁humanité	-12.9338
▁knot	-12.9338
▁assassiné	-12.9341
▁habilidades	-12.9342
▁recursos	-12.9342
▁gâteaux	-12.9343
onario	-12.9344
▁squeak	-12.9345
▁cultures	-12.9345
▁lamenta	-12.9345
▁stade	-12.9345
▁polish	-12.9349
▁ripp	-12.935
▁peligrosa	-12.9351
▁marchó	-12.9351
▁pare	-12.9352
tacó	-12.9354
▁adicto	-12.9354
▁tribuna	-12.9355
▁adorai	-12.9356
▁confirmer	-12.9357
▁marks	-12.9359
▁acepto	-12.936
▁revel	-12.9361
▁extinct	-12.9361
▁précipit	-12.9362
▁ignoró	-12.9363
▁gâcher	-12.9364
▁pic	-12.9366
▁rejet	-12.9367
iza	-12.9369
▁dégage	-12.937
▁bouchée	-12.9373
▁alquilar	-12.9374
▁achèterais	-12.9375
▁mínim	-12.9376
▁vestir	-12.9377
▁réception	-12.9381
▁presser	-12.9387
▁endroits	-12.9393
▁reverrai	-12.9395
rale	-12.94
▁precise	-12.9401
▁conduisez	-12.9403
▁endormis	-12.9406
▁raconta	-12.9407
thy	-12.9407
▁habitant	-12.941
▁ayudado	-12.9411
▁trousse	-12.9413
▁stable	-12.9415
▁sauron	-12.9415
▁rana	-12.9421
▁dirigi	-12.943
▁overwork	-12.9431
▁fumes	-12.9435
▁emploie	-12.9439
▁evento	-12.9443
▁titre	-12.9448
▁juegos	-12.945
che	-12.9452
▁lastimar	-12.9453
▁acquis	-12.9453
▁ripe	-12.9453
vin	-12.9456
▁gardener	-12.9464
▁traduc	-12.9465
▁escolar	-12.9468
▁serpientes	-12.9468
mporté	-12.948
▁situé	-12.9483
▁défauts	-12.9484
▁initial	-12.95
▁pasto	-12.9501
▁virée	-12.9501
volved	-12.9501
▁aimée	-12.9505
▁cacha	-12.9507
▁sosten	-12.9512
▁cal	-12.9513
allons	-12.9515
hép	-12.9516
inner	-12.9516
▁comía	-12.9519
cky	-12.9524
▁relate	-12.9534
▁décroch	-12.9536
▁muer	-12.9537
▁quedaro	-12.9539
▁minh	-12.9542
▁đại	-12.9544
▁đơ	-12.9546
▁extranjeras	-12.9548
▁indicate	-12.9549
uyết	-12.9552
▁méchante	-12.9552
▁rapproche	-12.9557
▁desayuna	-12.9559
▁calculate	-12.9576
▁maneja	-12.9576
▁homicid	-12.9577
▁truco	-12.9581
▁préven	-12.9581
▁periódicos	-12.9587
▁franc	-12.9592
▁funcion	-12.9594
▁falleci	-12.9598
▁nia	-12.9602
▁sujeto	-12.9605
▁protesta	-12.9606
▁saut	-12.9609
▁creci	-12.9611
▁abundant	-12.9617
▁thai	-12.9626
▁navega	-12.9629
wear	-12.9631
▁travailla	-12.9635
▁bold	-12.9639
▁competent	-12.9644
ath	-12.9645
▁rise	-12.9647
▁interesad	-12.965
▁erase	-12.9651
phones	-12.9652
▁introduit	-12.9653
break	-12.9665
▁nghiê	-12.9666
▁professeurs	-12.9667
levez	-12.967
▁défaut	-12.9671
trang	-12.9672
▁reposé	-12.9675
▁troubles	-12.9676
▁gradua	-12.9678
▁appartiennent	-12.9678
▁promote	-12.9679
cabeza	-12.968
▁microscop	-12.968
▁démission	-12.968
assage	-12.9684
▁cay	-12.969
▁eater	-12.9692
▁suivie	-12.9696
▁motivé	-12.9708
▁gelé	-12.971
▁introvert	-12.9714
▁pide	-12.9715
ướ	-12.9716
▁satisfaites	-12.9717
▁accroché	-12.972
▁nomme	-12.9722
▁retirar	-12.9724
osos	-12.9727
valentin	-12.9728
▁bó	-12.9729
▁pagan	-12.9729
▁sav	-12.973
▁pleura	-12.9732
▁finira	-12.9734
▁aliment	-12.9735
evó	-12.974
▁educat	-12.974
▁pedi	-12.9746
▁traicion	-12.9746
▁échange	-12.9747
▁éteinte	-12.9749
▁construc	-12.975
▁pensées	-12.9754
▁cart	-12.9758
▁cast	-12.976
▁craignai	-12.9761
ơ	-12.9761
allow	-12.9762
laise	-12.9763
▁gagnera	-12.9764
ueva	-12.9765
▁mexican	-12.9768
▁mariées	-12.9768
▁creé	-12.9773
▁placé	-12.9775
▁grados	-12.9776
▁pardonnerai	-12.9778
▁entradas	-12.9781
▁viví	-12.9782
▁encantado	-12.9785
▁recherches	-12.9786
▁présenta	-12.9793
▁pistol	-12.9794
▁inquiète	-12.9797
▁ventila	-12.9797
▁palm	-12.9798
▁punie	-12.9799
▁dense	-12.9801
▁vall	-12.9804
▁horrifi	-12.9807
▁creat	-12.9807
▁drap	-12.9811
▁pardonne	-12.9812
▁sinon	-12.9815
▁sigh	-12.9819
▁habilidad	-12.982
ouverture	-12.9824
▁septemb	-12.9824
▁sober	-12.9825
▁cogido	-12.9827
▁fracas	-12.9827
▁speci	-12.9829
▁recommanda	-12.9829
▁citoyen	-12.983
rit	-12.983
▁democrat	-12.983
▁accommodate	-12.983
▁brochure	-12.983
▁cauchemar	-12.983
▁cerisier	-12.983
▁council	-12.983
▁crocodile	-12.983
▁dentifrice	-12.983
▁dieciocho	-12.983
▁exterior	-12.983
▁hollywood	-12.983
▁hurricane	-12.983
▁interior	-12.983
▁perspective	-12.983
▁pilule	-12.983
▁positif	-12.983
▁reproduise	-12.983
▁rộn	-12.983
▁semáforo	-12.983
▁shadow	-12.983
▁stupéfait	-12.983
▁sábana	-12.983
▁vietnam	-12.983
▁épreuve	-12.983
▁chemical	-12.983
▁ennuyeuse	-12.983
▁flèche	-12.983
▁limít	-12.983
▁retrasó	-12.983
▁sótano	-12.983
▁aiguille	-12.983
▁encender	-12.983
▁rafraîchi	-12.983
▁désordre	-12.983
▁statistic	-12.983
▁flinch	-12.983
▁répète	-12.983
▁depriv	-12.983
▁lucía	-12.983
▁sauvage	-12.983
▁tesoro	-12.983
▁ninja	-12.983
▁pídele	-12.983
▁impedir	-12.983
▁steam	-12.9831
▁impartial	-12.9831
▁teclado	-12.9831
▁robinet	-12.9831
▁typewriter	-12.9831
▁descubierto	-12.9831
▁bartender	-12.9831
▁reuniones	-12.9831
▁frost	-12.9831
▁sunburn	-12.9831
▁consommation	-12.9831
▁habitaciones	-12.9831
▁apprennent	-12.9831
▁influent	-12.9831
quator	-12.9831
▁hangover	-12.9831
▁satisfaisant	-12.9831
▁détective	-12.9831
▁tifón	-12.9831
▁kimono	-12.9831
▁hoạch	-12.9831
▁conditionné	-12.9831
▁rash	-12.9831
ceite	-12.9832
▁discutiendo	-12.9832
▁biển	-12.9832
▁prescrit	-12.9832
▁parlaient	-12.9832
eligió	-12.9832
▁comieron	-12.9832
▁coopérer	-12.9832
▁brique	-12.9832
▁atento	-12.9832
▁amateur	-12.9833
▁zeal	-12.9834
▁épicé	-12.9834
▁ennuyé	-12.9834
▁automatique	-12.9834
▁cellar	-12.9834
▁paradis	-12.9835
▁perdez	-12.9835
▁lotería	-12.9836
▁ingeniero	-12.9836
▁manqu	-12.9837
▁barrio	-12.9837
▁approuvé	-12.9837
▁curiosité	-12.9837
prisa	-12.9837
▁desastre	-12.9838
▁démarré	-12.9838
▁lactos	-12.9838
▁reconnaître	-12.9839
▁kabu	-12.9839
cheminée	-12.984
▁marchez	-12.9841
▁progreso	-12.9841
▁talentueu	-12.9842
▁plier	-12.9842
▁stool	-12.9843
▁exploser	-12.9843
▁uncertain	-12.9845
▁natale	-12.9846
▁orchestra	-12.9846
▁frites	-12.9846
pposition	-12.9846
▁niev	-12.9846
▁lin	-12.9846
▁écoulé	-12.9846
▁clapp	-12.9847
▁souhaité	-12.9848
▁chả	-12.9849
▁cazar	-12.9852
▁participant	-12.9853
▁dieci	-12.9853
pied	-12.9854
arrêtait	-12.9855
▁amer	-12.9856
▁vigilan	-12.9856
▁liger	-12.9857
▁actualmente	-12.9857
▁fermement	-12.9858
▁émotions	-12.9859
▁terminará	-12.986
▁wrapp	-12.9863
▁cafe	-12.9865
ke	-12.9865
charpe	-12.9865
slo	-12.9867
▁steer	-12.9867
▁chin	-12.9869
▁señora	-12.9871
▁entitle	-12.9874
▁biologist	-12.9876
ours	-12.9876
milló	-12.9877
▁flamme	-12.9882
▁freno	-12.9882
▁desayun	-12.9882
▁levez	-12.9883
▁herramientas	-12.9884
▁numero	-12.9886
▁contraint	-12.9886
▁acostumbr	-12.9892
▁llevé	-12.9893
▁décédée	-12.9895
▁insulte	-12.9898
▁prediction	-12.9899
▁merezc	-12.9899
▁baje	-12.99
▁cran	-12.9901
▁đè	-12.9904
▁raccroch	-12.9905
▁evacuate	-12.9906
▁espoirs	-12.9906
habille	-12.9908
▁basta	-12.9908
▁verrouille	-12.9913
▁cerveau	-12.9914
▁annoncer	-12.9914
bré	-12.9916
▁confia	-12.9919
▁fled	-12.992
ándome	-12.9922
▁adivinar	-12.9922
▁centime	-12.9924
▁cerr	-12.9927
▁trie	-12.9927
chas	-12.993
▁habitent	-12.9933
▁offense	-12.9938
▁decente	-12.9941
▁meurs	-12.9946
▁pluies	-12.9946
▁respecté	-12.9946
▁baza	-12.9948
▁chewing	-12.9951
▁winner	-12.9953
▁mancha	-12.9956
▁majeure	-12.9959
▁vivante	-12.9965
right	-12.9979
voué	-12.9991
▁insinu	-12.9992
▁pes	-12.9998
▁rentres	-12.9999
shop	-13
▁hab	-13.0004
▁reina	-13.0006
▁tuyos	-13.0009
▁snap	-13.0012
▁princes	-13.0015
azo	-13.0017
▁suisse	-13.002
▁constante	-13.0022
accus	-13.0024
▁diplomatic	-13.0031
▁admira	-13.0033
▁nôtres	-13.0035
▁explor	-13.0043
dict	-13.0045
anda	-13.0046
▁refer	-13.0046
▁pole	-13.0047
▁achev	-13.0049
▁classic	-13.0051
▁amuse	-13.0059
▁cleaner	-13.0062
▁grandchild	-13.0064
▁embrassa	-13.0067
▁troupe	-13.0069
▁infan	-13.0072
▁gui	-13.0075
nts	-13.0075
▁abrazar	-13.0076
▁plaisantes	-13.0077
▁extrañar	-13.0084
▁aventure	-13.0087
▁colis	-13.0088
▁ham	-13.0088
▁patin	-13.0093
▁serre	-13.0096
▁crayons	-13.0098
▁considerar	-13.0098
▁gras	-13.01
▁apague	-13.0102
▁cabe	-13.0104
▁buvai	-13.0105
ved	-13.0108
▁cadet	-13.0108
vi	-13.0113
veros	-13.0114
▁emball	-13.0118
▁preocup	-13.0123
▁tí	-13.0125
▁mineur	-13.013
lón	-13.0132
▁discre	-13.0132
▁consulte	-13.0132
▁impuissant	-13.0135
versé	-13.0136
▁rub	-13.0136
tube	-13.0138
▁procure	-13.015
▁fallo	-13.0151
▁ignorar	-13.0153
▁tirez	-13.0155
▁yên	-13.0156
▁vitamina	-13.0157
ravé	-13.016
▁exhibi	-13.0169
▁écrivi	-13.0175
▁lycéen	-13.0176
▁fie	-13.0176
▁pobres	-13.0176
▁terrifié	-13.0176
▁rassembl	-13.0181
gió	-13.0182
▁negoci	-13.0187
coli	-13.019
▁fonction	-13.0193
▁donate	-13.0195
▁recycle	-13.0196
▁devrai	-13.0198
▁cigarrillo	-13.0198
isión	-13.0198
▁decí	-13.02
▁désorienté	-13.0208
▁llen	-13.0212
▁fiar	-13.0214
▁enlevé	-13.0215
▁aplaudi	-13.0216
▁amusées	-13.022
▁kilo	-13.022
▁gene	-13.023
▁confond	-13.0232
▁sábados	-13.0237
▁stationne	-13.0238
▁struggl	-13.0239
▁arrêtés	-13.0249
▁exposé	-13.0259
▁easter	-13.026
▁ôte	-13.026
▁courus	-13.0269
▁sauve	-13.0273
▁pida	-13.0274
bel	-13.0276
into	-13.0276
▁relevant	-13.0279
▁nationalit	-13.0281
▁élevée	-13.0282
person	-13.0287
▁pessimist	-13.0289
▁tiendrai	-13.029
▁arrêtes	-13.029
▁atteigni	-13.0292
▁amende	-13.0293
▁đu	-13.0293
▁ache	-13.0297
▁pis	-13.0299
▁caches	-13.03
▁décoll	-13.0302
▁controlle	-13.0308
▁basi	-13.0311
▁revenus	-13.0316
▁commenc	-13.0319
▁conflict	-13.032
▁marchar	-13.0321
▁assign	-13.0323
▁choos	-13.0324
▁comprende	-13.0325
▁resembl	-13.0325
▁sonando	-13.0327
cogí	-13.0333
▁réveil	-13.0343
▁interprète	-13.0343
▁western	-13.0347
▁male	-13.0348
▁hais	-13.0351
▁cuán	-13.0353
▁salier	-13.0354
▁cousine	-13.0354
▁anniversa	-13.0357
▁chalk	-13.0357
▁overwhelm	-13.0357
▁auténtico	-13.0357
▁biblia	-13.0357
▁clásica	-13.0357
▁collège	-13.0357
▁compagnon	-13.0357
▁dauphin	-13.0357
▁eléctrica	-13.0357
▁espagnol	-13.0357
▁fiançailles	-13.0357
▁gatito	-13.0357
▁indifférent	-13.0357
▁inténtalo	-13.0357
▁neigé	-13.0357
▁randonnée	-13.0357
▁rédigé	-13.0357
▁technical	-13.0357
▁vídeo	-13.0357
▁zanja	-13.0357
▁épouvantable	-13.0357
▁agressif	-13.0357
▁cálido	-13.0357
▁dishonest	-13.0357
▁warrant	-13.0357
▁zebra	-13.0357
▁débarrassé	-13.0357
▁religión	-13.0357
▁napkin	-13.0357
▁siglo	-13.0357
▁maestra	-13.0357
▁revés	-13.0357
▁hydrog	-13.0357
▁vestida	-13.0357
▁pijama	-13.0357
▁compassion	-13.0357
▁merecía	-13.0357
▁imprimante	-13.0357
▁abeja	-13.0357
▁cigarro	-13.0357
▁plombier	-13.0357
▁foiré	-13.0357
▁considération	-13.0357
▁blast	-13.0357
▁équitable	-13.0357
▁sabio	-13.0357
▁sourcil	-13.0357
▁réfugié	-13.0357
▁susceptible	-13.0357
▁discrimination	-13.0357
▁decidiste	-13.0357
▁concurso	-13.0357
▁smash	-13.0357
▁condenado	-13.0358
▁juicio	-13.0358
▁bijou	-13.0358
▁restrain	-13.0358
▁cambriolé	-13.0358
▁agudo	-13.0358
▁sagesse	-13.0358
▁habile	-13.0358
▁plaisantez	-13.0358
▁feront	-13.0359
▁salvaje	-13.0359
▁plongé	-13.036
▁entrenador	-13.036
petró	-13.036
▁audition	-13.036
▁ciertamente	-13.036
▁triunfar	-13.036
▁négocier	-13.036
▁clums	-13.036
▁enamoró	-13.0361
▁poire	-13.0361
▁glacée	-13.0361
▁exceptional	-13.0361
▁resignation	-13.0361
▁eyebrow	-13.0361
▁déja	-13.0361
▁trí	-13.0362
▁parcouru	-13.0363
▁asinti	-13.0363
▁cumplido	-13.0364
▁gâché	-13.0365
▁informado	-13.0365
▁insensi	-13.0365
▁charlar	-13.0366
▁monster	-13.0367
▁incorrecta	-13.0367
▁rinse	-13.0367
ggy	-13.0368
▁totale	-13.0368
▁fellow	-13.0368
▁achievement	-13.0368
▁ménagère	-13.0368
▁contribution	-13.0369
▁confondu	-13.0369
▁reception	-13.037
▁tijeras	-13.037
▁imply	-13.0371
▁imitation	-13.0372
▁gripe	-13.0372
▁technologie	-13.0373
▁mugg	-13.0373
▁frutas	-13.0374
▁atractiva	-13.0374
▁administrati	-13.0374
▁lifetime	-13.0376
▁ladron	-13.0376
▁complexe	-13.0376
broken	-13.0378
itter	-13.0379
▁asegur	-13.038
▁faillite	-13.038
▁apesta	-13.0382
▁portail	-13.0384
▁indice	-13.0384
▁pourrons	-13.0385
▁golpear	-13.0386
anza	-13.0387
▁consiga	-13.0387
▁wa	-13.0387
▁valley	-13.0389
▁détestai	-13.0389
attirer	-13.0393
▁resolv	-13.0395
ster	-13.0397
átil	-13.0397
confident	-13.04
▁devrons	-13.0403
▁incorrecto	-13.0403
▁guérir	-13.0403
▁iría	-13.0403
▁thâ	-13.0406
▁mạnh	-13.0406
▁fréque	-13.0408
▁ailes	-13.0411
▁taper	-13.0411
▁sucia	-13.0411
▁négociations	-13.0413
▁changerai	-13.0416
▁souhaitai	-13.0419
▁cope	-13.042
▁crainte	-13.0421
▁select	-13.0425
▁effrayés	-13.0428
▁assum	-13.0428
▁esperábamos	-13.0433
▁disons	-13.0434
▁voile	-13.0436
▁planche	-13.0439
▁colle	-13.044
▁partiez	-13.044
▁fidèle	-13.0442
▁organisation	-13.0443
▁function	-13.0443
▁remettra	-13.0445
▁poursuiv	-13.0445
▁tha	-13.0447
▁probado	-13.0448
▁turistas	-13.0449
▁surprendr	-13.0449
▁réparée	-13.0451
▁raide	-13.0452
▁vengan	-13.0454
▁emporte	-13.0459
▁swims	-13.0459
▁reproduir	-13.046
▁conociera	-13.0461
▁calent	-13.0461
▁affirm	-13.0465
▁justifie	-13.0469
▁aprenda	-13.0471
▁despi	-13.0471
▁aboie	-13.0473
awa	-13.0475
▁lectur	-13.0476
▁nguy	-13.0477
▁entr	-13.0478
▁mueve	-13.0481
▁enojar	-13.0482
▁mouillée	-13.0492
▁conejos	-13.0492
▁horn	-13.0493
▁naga	-13.0493
assure	-13.0495
▁đan	-13.0496
▁couverte	-13.0499
▁elefantes	-13.0501
▁avocate	-13.0502
▁láv	-13.0503
▁molestes	-13.0507
▁commerciale	-13.0514
▁ange	-13.0515
▁cargar	-13.0519
▁arruin	-13.052
▁ocasion	-13.0523
▁rac	-13.0525
▁ab	-13.0525
appelles	-13.0527
▁discourag	-13.0529
▁sube	-13.053
▁twentie	-13.0531
▁contactar	-13.0531
▁invad	-13.0532
▁pat	-13.0535
▁deceiv	-13.0535
rmelo	-13.0537
▁marches	-13.0538
▁congress	-13.0541
▁alcanza	-13.0542
▁disposai	-13.0549
▁conocimiento	-13.0554
▁políticos	-13.0554
▁cultiva	-13.0554
▁médicale	-13.0559
▁promot	-13.0559
▁éta	-13.0559
▁montée	-13.0563
▁puertas	-13.0563
▁humaine	-13.0563
▁witnesse	-13.0574
rich	-13.0577
▁manga	-13.0577
whi	-13.0581
▁llora	-13.0586
▁malheur	-13.0589
▁adolescentes	-13.0591
▁muestra	-13.0597
▁forth	-13.0599
shine	-13.0601
▁atm	-13.0601
seguro	-13.0601
▁caí	-13.0612
▁buck	-13.0613
▁divorci	-13.0629
▁vela	-13.063
▁expliquerai	-13.0633
▁interfer	-13.0634
▁alluma	-13.0641
▁slippe	-13.0643
écoutes	-13.0643
▁bañar	-13.0647
ollen	-13.0648
▁sow	-13.0649
▁indépendant	-13.0657
▁dépassé	-13.0658
▁regresa	-13.0666
▁influencia	-13.0671
▁cultura	-13.0675
▁considérer	-13.0676
▁colon	-13.0679
▁ạ	-13.0686
▁reputa	-13.0688
▁irez	-13.0694
▁gastar	-13.0696
▁castig	-13.0697
▁mette	-13.0698
▁déserte	-13.0701
eaba	-13.0702
darse	-13.0703
▁suicida	-13.0706
▁hack	-13.0712
encia	-13.0717
nette	-13.0718
mando	-13.072
▁competi	-13.0722
▁entende	-13.0723
▁mire	-13.0724
▁circula	-13.0724
▁untie	-13.0725
▁pourvu	-13.0727
▁comprise	-13.0728
pstick	-13.0728
▁arranger	-13.0732
ugué	-13.0734
vrez	-13.0739
▁asustar	-13.0739
▁dégoûtant	-13.074
▁tag	-13.0741
▁déçus	-13.0743
▁fermier	-13.0743
▁misterio	-13.0749
▁regrettera	-13.075
boy	-13.0751
filer	-13.0751
▁grit	-13.0753
▁serpiente	-13.0753
▁droga	-13.0755
▁roma	-13.0756
▁chaussure	-13.0756
▁exaggerat	-13.0757
▁savon	-13.076
▁fo	-13.077
▁alimento	-13.077
▁déceva	-13.0776
frica	-13.0777
▁knit	-13.0783
▁vocabular	-13.0784
▁mirá	-13.0788
▁venons	-13.0791
▁jean	-13.0791
▁laissera	-13.0797
▁croissan	-13.0799
▁négligent	-13.08
▁transmit	-13.0801
▁regañ	-13.0802
▁wig	-13.0814
▁revis	-13.0817
▁disfrutar	-13.0818
▁ranger	-13.082
▁révélé	-13.0822
▁agité	-13.0822
▁citron	-13.0823
▁blanches	-13.084
▁evident	-13.0845
▁commett	-13.0846
▁sorprender	-13.0847
▁recess	-13.0847
▁palo	-13.0847
▁ngon	-13.0849
▁loué	-13.0851
▁reconoci	-13.0852
▁fabulo	-13.0853
▁paraître	-13.0853
▁rond	-13.0857
▁contribut	-13.0862
▁usan	-13.0869
▁bo	-13.0869
▁mét	-13.087
▁vasos	-13.087
▁islam	-13.0872
▁tir	-13.088
▁informer	-13.0881
▁défait	-13.0888
▁décourage	-13.0888
ountain	-13.0889
nza	-13.089
▁fundamental	-13.0892
▁grandpa	-13.0893
assis	-13.0894
▁scot	-13.0894
▁âm	-13.0898
▁inconscient	-13.0899
▁prompt	-13.0901
form	-13.0902
avér	-13.0903
raison	-13.0904
▁suicidar	-13.0907
itud	-13.0909
▁govern	-13.091
▁profession	-13.0911
▁grammatical	-13.0911
▁veneno	-13.0911
▁opéra	-13.0912
▁ngư	-13.0912
▁remarqua	-13.0912
▁tendenc	-13.0912
▁anterior	-13.0912
▁campaign	-13.0912
▁catholique	-13.0912
▁empecemos	-13.0912
▁empreinte	-13.0912
▁exámen	-13.0912
▁handcuff	-13.0912
▁intérprete	-13.0912
▁mushroom	-13.0912
▁négative	-13.0912
▁príncipe	-13.0912
▁química	-13.0912
▁satellite	-13.0912
▁simpático	-13.0912
▁séduisant	-13.0912
▁triangle	-13.0912
▁víctima	-13.0912
▁wrist	-13.0912
▁défunt	-13.0912
▁désastre	-13.0912
▁furieuse	-13.0912
▁tuyệt	-13.0912
▁tímida	-13.0912
recién	-13.0912
▁mislead	-13.0912
▁gardons	-13.0912
▁humming	-13.0912
▁riqueza	-13.0912
▁soltera	-13.0912
▁yield	-13.0912
▁définitive	-13.0912
▁grifo	-13.0912
▁bounce	-13.0912
▁cheville	-13.0912
▁pattern	-13.0912
▁stitch	-13.0912
▁combustible	-13.0912
▁royal	-13.0912
▁flaw	-13.0912
▁regain	-13.0912
▁garaje	-13.0912
▁civilization	-13.0912
quate	-13.0912
▁séisme	-13.0912
▁texas	-13.0912
▁clown	-13.0913
▁acquaintance	-13.0913
hamlet	-13.0913
▁foyer	-13.0913
▁huella	-13.0913
▁sesenta	-13.0913
▁étudions	-13.0913
▁maquillaje	-13.0913
▁harina	-13.0913
▁ordure	-13.0913
▁humilié	-13.0913
▁finissons	-13.0913
▁trưa	-13.0913
▁logic	-13.0913
▁manifestement	-13.0913
▁spécialité	-13.0913
▁bloqué	-13.0913
▁gentl	-13.0913
▁réparation	-13.0913
▁excessive	-13.0913
▁oak	-13.0913
▁métal	-13.0913
▁procédure	-13.0913
▁boast	-13.0913
▁brusque	-13.0913
▁nacional	-13.0913
▁straw	-13.0914
▁tratamiento	-13.0914
▁thread	-13.0914
▁repugnant	-13.0914
▁lentille	-13.0914
▁précédent	-13.0914
▁británico	-13.0914
▁emmenez	-13.0914
▁pondrá	-13.0914
▁ardilla	-13.0914
▁splash	-13.0914
▁battent	-13.0914
▁mastica	-13.0914
actitud	-13.0914
▁upload	-13.0914
▁décoration	-13.0915
[...]
